<PAD>	0
<UNK>	0
<BOS>	0
<EOS>	0
▁t	-0
▁a	-1
▁w	-2
he	-3
▁s	-4
▁n	-5
in	-6
▁o	-7
▁l	-8
ọ́	-9
▁m	-10
▁b	-11
▁p	-12
▁f	-13
▁k	-14
re	-15
ẹ̀	-16
ẹ́	-17
▁à	-18
▁the	-19
an	-20
ọ̀	-21
gb	-22
ọn	-23
ti	-24
er	-25
▁d	-26
▁ì	-27
▁ní	-28
is	-29
on	-30
es	-31
un	-32
wọn	-33
ha	-34
or	-35
▁y	-36
▁ṣ	-37
ed	-38
en	-39
▁to	-40
▁c	-41
▁r	-42
ing	-43
ou	-44
▁an	-45
it	-46
▁of	-47
▁tó	-48
▁J	-49
▁tí	-50
▁ń	-51
ra	-52
àn	-53
ún	-54
▁in	-55
▁àwọn	-56
▁j	-57
▁pé	-58
il	-59
ar	-60
▁and	-61
ọ́n	-62
▁h	-63
▁“	-64
▁ṣe	-65
al	-66
▁B	-67
▁lá	-68
▁gb	-69
om	-70
áa	-71
hat	-72
▁T	-73
▁sí	-74
▁i	-75
▁ọ	-76
▁1	-77
le	-78
▁ti	-79
us	-80
▁g	-81
at	-82
ho	-83
▁I	-84
▁máa	-85
▁re	-86
▁A	-87
▁è	-88
▁sì	-89
▁e	-90
▁wọ́n	-91
▁ni	-92
ve	-93
▁wa	-94
▁be	-95
▁ò	-96
áà	-97
▁S	-98
▁fi	-99
▁W	-100
rí	-101
▁-	-102
▁bá	-103
▁ó	-104
▁K	-105
ot	-106
ìn	-107
▁that	-108
ẹn	-109
.”	-110
ly	-111
▁ha	-112
▁ọ̀	-113
▁ló	-114
▁Ọ	-115
jú	-116
▁he	-117
tion	-118
od	-119
gbà	-120
ow	-121
▁jẹ́	-122
ur	-123
se	-124
ìí	-125
▁on	-126
▁G	-127
▁fún	-128
▁M	-129
ic	-130
id	-131
▁náà	-132
nú	-133
▁you	-134
▁N	-135
▁kí	-136
▁kan	-137
ùn	-138
▁À	-139
▁L	-140
▁rẹ̀	-141
▁lè	-142
lẹ̀	-143
▁wọn	-144
st	-145
▁àti	-146
ay	-147
▁we	-148
ll	-149
▁láti	-150
ọ́r	-151
▁is	-152
▁P	-153
ent	-154
hun	-155
▁—	-156
▁for	-157
▁th	-158
▁H	-159
▁2	-160
▁wà	-161
ut	-162
yàn	-163
ld	-164
ce	-165
▁sọ	-166
ith	-167
ir	-168
▁bí	-169
▁C	-170
án	-171
fà	-172
▁O	-173
her	-174
ah	-175
▁ẹ̀	-176
ver	-177
▁Ì	-178
pa	-179
ro	-180
lọ́r	-181
lọ́run	-182
am	-183
et	-184
▁nínú	-185
▁Ọlọ́run	-186
gh	-187
▁ohun	-188
ill	-189
▁wá	-190
ri	-191
ul	-192
ad	-193
▁as	-194
▁ìw	-195
▁Je	-196
▁The	-197
▁ẹ	-198
mọ	-199
▁kò	-200
ess	-201
kan	-202
hó	-203
èhó	-204
èhófà	-205
▁with	-206
ch	-207
▁Jèhófà	-208
yé	-209
ṣẹ́	-210
ist	-211
lì	-212
▁mo	-213
èyàn	-214
ble	-215
ation	-216
▁his	-217
▁con	-218
hov	-219
hovah	-220
▁God	-221
▁not	-222
▁mi	-223
▁Jehovah	-224
rin	-225
▁D	-226
el	-227
im	-228
ec	-229
mọ́	-230
bí	-231
▁rí	-232
▁was	-233
óò	-234
rọ̀	-235
▁kó	-236
wọ́	-237
ers	-238
▁pa	-239
▁al	-240
▁F	-241
lú	-242
▁yìí	-243
▁Ní	-244
▁lọ	-245
▁Bí	-246
ẹni	-247
▁it	-248
▁st	-249
▁R	-250
▁tá	-251
gbo	-252
▁lọ́	-253
ak	-254
▁ká	-255
ge	-256
▁ọmọ	-257
yí	-258
tí	-259
and	-260
rom	-261
▁will	-262
orí	-263
▁mú	-264
ght	-265
▁èèyàn	-266
ogbo	-267
▁lo	-268
th	-269
▁are	-270
ome	-271
bé	-272
op	-273
▁wor	-274
▁li	-275
▁have	-276
sù	-277
▁do	-278
jọ	-279
rò	-280
▁nípa	-281
yìn	-282
▁or	-283
▁di	-284
sí	-285
de	-286
▁dá	-287
as	-288
àá	-289
▁un	-290
▁gbogbo	-291
▁ex	-292
▁Ẹ	-293
lé	-294
ould	-295
ac	-296
ts	-297
pp	-298
tà	-299
▁3	-300
▁E	-301
▁us	-302
ba	-303
ain	-304
ẹ́ẹ̀	-305
dí	-306
▁who	-307
▁me	-308
▁]	-309
kàn	-310
ol	-311
rá	-312
▁il	-313
ure	-314
▁yóò	-315
▁[	-316
ear	-317
▁from	-318
▁Àwọn	-319
▁í	-320
▁at	-321
▁sp	-322
pọ̀	-323
hen	-324
ṣe	-325
▁mí	-326
yà	-327
ràn	-328
ible	-329
▁by	-330
lù	-331
▁(	-332
bi	-333
bélì	-334
▁de	-335
▁Bíbélì	-336
▁Y	-337
▁Ó	-338
▁mọ́	-339
tọ́	-340
▁their	-341
▁your	-342
▁they	-343
▁gbà	-344
ion	-345
mi	-346
▁ne	-347
▁our	-348
▁can	-349
▁pe	-350
▁ẹni	-351
kọ́	-352
dún	-353
ven	-354
ans	-355
ésù	-356
▁á	-357
ris	-358
▁ayé	-359
▁fa	-360
mí	-361
▁su	-362
▁ab	-363
rú	-364
▁nígbà	-365
ǹkan	-366
▁gbé	-367
lẹ́	-368
red	-369
ted	-370
▁fẹ́	-371
ọ̀n	-372
▁)	-373
fe	-374
▁tà	-375
ren	-376
▁Jes	-377
▁Jésù	-378
jọ́	-379
▁ìwé	-380
oun	-381
ter	-382
▁pro	-383
▁all	-384
▁ara	-385
li	-386
ss	-387
▁Ch	-388
kọ	-389
▁Bible	-390
mọ̀	-391
jì	-392
▁nǹkan	-393
▁bẹ́ẹ̀	-394
dè	-395
ín	-396
▁lẹ́	-397
▁iṣẹ́	-398
▁v	-399
ni	-400
▁Jesus	-401
ity	-402
▁them	-403
ness	-404
▁him	-405
▁lé	-406
ci	-407
wa	-408
end	-409
ous	-410
torí	-411
▁se	-412
▁com	-413
▁man	-414
▁rẹ	-415
kò	-416
kùn	-417
em	-418
▁Ṣ	-419
lá	-420
▁tàbí	-421
ní	-422
▁In	-423
kọ̀	-424
rist	-425
yẹn	-426
bẹ̀	-427
out	-428
▁this	-429
▁ac	-430
▁Kí	-431
ore	-432
ust	-433
▁kì	-434
""	-435
um	-436
▁lórí	-437
▁tún	-438
▁go	-439
ings	-440
so	-441
kó	-442
ud	-443
risti	-444
▁one	-445
▁were	-446
qu	-447
ther	-448
ok	-449
▁what	-450
▁4	-451
dá	-452
ind	-453
úr	-454
▁tr	-455
rẹ̀	-456
▁sa	-457
▁nì	-458
ong	-459
..	-460
ate	-461
▁had	-462
▁àp	-463
ló	-464
ople	-465
▁èyí	-466
▁ìgbà	-467
▁‘	-468
nì	-469
ẹ̀lú	-470
gbọ́n	-471
▁ọ̀rọ̀	-472
▁lọ́wọ́	-473
est	-474
wo	-475
os	-476
▁19	-477
▁ojú	-478
wé	-479
▁lára	-480
▁so	-481
▁my	-482
la	-483
▁orí	-484
▁òun	-485
nà	-486
▁kọ́	-487
▁wh	-488
ment	-489
▁la	-490
up	-491
ant	-492
▁An	-493
▁He	-494
kì	-495
▁pẹ̀lú	-496
gbé	-497
,”	-498
dọ̀	-499
▁wo	-500
▁people	-501
ake	-502
▁Ọ̀	-503
▁tim	-504
kú	-505
ep	-506
kùnrin	-507
sìn	-508
ke	-509
▁yẹn	-510
▁gbọ́	-511
ára	-512
▁What	-513
▁èdè	-514
ful	-515
ame	-516
rè	-517
wó	-518
▁ch	-519
▁dis	-520
▁pre	-521
▁ọdún	-522
00	-523
▁has	-524
▁ìṣ	-525
other	-526
▁hàn	-527
ard	-528
ally	-529
▁yẹ	-530
là	-531
sel	-532
▁bó	-533
▁kú	-534
▁Is	-535
▁ará	-536
our	-537
pl	-538
ach	-539
ort	-540
ine	-541
ájú	-542
▁mọ	-543
ving	-544
ye	-545
lò	-546
ild	-547
▁5	-548
▁ilẹ̀	-549
yè	-550
wò	-551
▁pà	-552
▁How	-553
ves	-554
▁bec	-555
ord	-556
▁È	-557
▁when	-558
mù	-559
fẹ́	-560
▁en	-561
▁alá	-562
▁mọ̀	-563
ta	-564
▁im	-565
▁dé	-566
ved	-567
▁Bá	-568
▁about	-569
ff	-570
▁kọ	-571
▁res	-572
▁other	-573
▁up	-574
te	-575
one	-576
▁Nígbà	-577
▁say	-578
pá	-579
▁ṣà	-580
▁gan	-581
ótọ́	-582
ig	-583
▁6	-584
dà	-585
▁br	-586
hose	-587
▁já	-588
sì	-589
▁ìjọ	-590
▁oní	-591
▁out	-592
nu	-593
▁would	-594
▁dà	-595
now	-596
art	-597
tic	-598
▁ad	-599
der	-600
bá	-601
▁ser	-602
▁tú	-603
rán	-604
▁mẹ́	-605
rẹ	-606
▁Àmọ́	-607
▁ilé	-608
▁fe	-609
▁mé	-610
vid	-611
▁inú	-612
tọ̀	-613
reat	-614
▁fo	-615
irit	-616
▁may	-617
▁hel	-618
▁but	-619
▁gba	-620
▁nítorí	-621
all	-622
ue	-623
ọ̀rọ̀	-624
tì	-625
dé	-626
▁help	-627
▁some	-628
gẹ́	-629
ough	-630
▁le	-631
▁Krist	-632
ag	-633
▁time	-634
▁did	-635
▁Kristẹni	-636
ple	-637
kà	-638
▁bẹ̀	-639
▁má	-640
rìí	-641
▁tẹ̀	-642
▁Christi	-643
ence	-644
rẹ́	-645
to	-646
jẹ́	-647
kọ̀ọ́	-648
ight	-649
ọ́ọ̀	-650
▁ìp	-651
rùn	-652
▁yín	-653
▁spirit	-654
▁life	-655
sẹ̀	-656
▁ob	-657
▁Ò	-658
▁gi	-659
▁pọ̀	-660
lo	-661
hi	-662
▁ọ̀nà	-663
▁her	-664
ìnrin	-665
▁15	-666
▁know	-667
aus	-668
kẹ́	-669
rù	-670
▁ṣè	-671
▁work	-672
▁ọ̀pọ̀	-673
▁those	-674
ẹ̀ẹ́	-675
▁And	-676
ran	-677
uc	-678
▁irú	-679
▁ear	-680
hy	-681
itness	-682
▁how	-683
very	-684
we	-685
ẹẹ	-686
ect	-687
▁app	-688
age	-689
▁táwọn	-690
▁te	-691
▁8	-692
▁day	-693
gun	-694
ry	-695
▁sha	-696
ew	-697
ations	-698
èrè	-699
▁7	-700
▁there	-701
▁jù	-702
▁ar	-703
tò	-704
▁ọkàn	-705
▁said	-706
▁ké	-707
▁ag	-708
▁cont	-709
▁ìyẹn	-710
▁Ẹlẹ́	-711
ather	-712
▁ìdí	-713
fi	-714
pt	-715
▁sá	-716
ich	-717
▁year	-718
▁/	-719
▁Th	-720
▁là	-721
ab	-722
▁also	-723
dì	-724
po	-725
▁10	-726
kè	-727
per	-728
▁way	-729
ice	-730
▁sílẹ̀	-731
▁more	-732
▁no	-733
▁sin	-734
▁dí	-735
▁bẹ̀rẹ̀	-736
▁she	-737
ẹ́gẹ́	-738
fí	-739
▁mu	-740
▁sh	-741
▁ìwà	-742
▁ọjọ́	-743
nìyàn	-744
ons	-745
ever	-746
▁child	-747
▁tẹ́	-748
ause	-749
▁ṣẹ	-750
▁ìt	-751
▁àtà	-752
ber	-753
ual	-754
▁12	-755
ẹẹrẹ	-756
pò	-757
ọ́nà	-758
dom	-759
▁11	-760
ress	-761
ilẹ̀	-762
▁Re	-763
urú	-764
▁jẹ	-765
▁ènìyàn	-766
▁Pa	-767
ùgbọ́n	-768
▁pra	-769
tàkì	-770
iti	-771
fore	-772
▁9	-773
gbára	-774
bù	-775
ise	-776
já	-777
▁Witness	-778
ance	-779
▁qu	-780
rín	-781
▁Isra	-782
▁rere	-783
▁need	-784
▁been	-785
▁per	-786
▁sọ̀rọ̀	-787
▁Jo	-788
wà	-789
▁wò	-790
▁good	-791
▁Ẹlẹ́rìí	-792
ily	-793
▁Lá	-794
▁ibi	-795
ated	-796
the	-797
ide	-798
▁over	-799
▁wí	-800
ia	-801
tions	-802
yìí	-803
hùn	-804
▁orílẹ̀	-805
kù	-806
jà	-807
ree	-808
▁bo	-809
▁Í	-810
▁It	-811
▁ìgbé	-812
▁pàtàkì	-813
▁àtàwọn	-814
gbọ́	-815
▁faith	-816
▁such	-817
▁pers	-818
▁many	-819
lọ́	-820
▁which	-821
▁ẹn	-822
▁bà	-823
▁ke	-824
fin	-825
▁am	-826
▁We	-827
▁jọ	-828
▁ẹ̀mí	-829
▁lójú	-830
▁U	-831
▁ba	-832
fter	-833
gbẹ́	-834
llow	-835
▁if	-836
▁po	-837
▁wr	-838
ọ́ọ̀lù	-839
▁than	-840
hip	-841
rì	-842
òro	-843
▁míì	-844
▁""	-845
lí	-846
gi	-847
▁Tó	-848
▁Wọ́n	-849
▁Witnesses	-850
▁14	-851
ict	-852
▁20	-853
lúwa	-854
àní	-855
▁des	-856
▁For	-857
ang	-858
té	-859
ds	-860
ary	-861
▁ìfẹ́	-862
dọ́	-863
▁King	-864
▁13	-865
▁lẹ́yìn	-866
▁ca	-867
ned	-868
dúr	-869
▁acc	-870
ten	-871
▁things	-872
▁bíi	-873
bọ̀	-874
▁kúrò	-875
▁gẹ́gẹ́	-876
ish	-877
les	-878
ṣẹ̀	-879
▁lò	-880
self	-881
▁Mo	-882
▁tọ́	-883
wájú	-884
▁comm	-885
▁Tí	-886
▁àkó	-887
át	-888
ile	-889
▁world	-890
▁does	-891
▁see	-892
gbè	-893
sọ	-894
▁fir	-895
▁like	-896
▁Ìwé	-897
▁àì	-898
▁even	-899
▁As	-900
▁Báwo	-901
▁ṣẹlẹ̀	-902
▁should	-903
▁love	-904
ws	-905
▁Ohun	-906
able	-907
tain	-908
▁sho	-909
cri	-910
▁off	-911
ath	-912
▁Olúwa	-913
fẹ̀ẹ́	-914
ánì	-915
bà	-916
▁earth	-917
▁ìlú	-918
hed	-919
▁jáde	-920
▁àpẹẹrẹ	-921
▁into	-922
▁person	-923
wòrán	-924
sè	-925
ub	-926
▁make	-927
ani	-928
▁But	-929
di	-930
▁ńlá	-931
ró	-932
ṣẹ	-933
less	-934
.’	-935
▁Paul	-936
▁dáa	-937
uth	-938
ẹ́yìn	-939
ater	-940
▁ṣeé	-941
▁fam	-942
▁exam	-943
▁cons	-944
yọ̀	-945
rà	-946
wn	-947
▁ìwọ	-948
ked	-949
▁Á	-950
▁So	-951
tive	-952
sá	-953
▁.	-954
▁Ẹ̀	-955
kún	-956
▁any	-957
▁under	-958
▁Christ	-959
▁On	-960
▁hum	-961
▁só	-962
▁16	-963
▁ju	-964
▁méjì	-965
ade	-966
▁jí	-967
yá	-968
▁ta	-969
fààní	-970
ǹfààní	-971
▁àkókò	-972
oy	-973
run	-974
mú	-975
▁oló	-976
▁says	-977
▁Israel	-978
jẹ	-979
▁17	-980
▁children	-981
jí	-982
▁You	-983
▁àmọ́	-984
...	-985
▁pè	-986
▁Pọ́ọ̀lù	-987
▁these	-988
ning	-989
ct	-990
led	-991
gún	-992
▁could	-993
▁Ń	-994
▁rem	-995
▁ọ́	-996
▁Ìjọ	-997
onú	-998
▁Bó	-999
here	-1000
▁first	-1001
dúrà	-1002
òótọ́	-1003
ies	-1004
OR	-1005
▁years	-1006
▁làwọn	-1007
und	-1008
▁page	-1009
ures	-1010
▁18	-1011
ound	-1012
▁shall	-1013
▁right	-1014
▁men	-1015
yàwó	-1016
ef	-1017
▁inc	-1018
ru	-1019
▁Christian	-1020
▁yí	-1021
wọ̀n	-1022
▁imp	-1023
ṣà	-1024
▁When	-1025
▁Nítorí	-1026
ast	-1027
úró	-1028
▁gbọ́dọ̀	-1029
kun	-1030
▁èmi	-1031
ower	-1032
ive	-1033
▁olù	-1034
▁ọkùnrin	-1035
▁kọ̀	-1036
▁rán	-1037
ṣù	-1038
ìíràn	-1039
ré	-1040
▁títí	-1041
▁Kristi	-1042
▁wọ̀n	-1043
ack	-1044
kí	-1045
▁stud	-1046
ád	-1047
▁mìíràn	-1048
▁Sí	-1049
▁èrò	-1050
ké	-1051
ite	-1052
▁again	-1053
▁kẹ́	-1054
arí	-1055
reg	-1056
cc	-1057
way	-1058
▁wàá	-1059
bìnrin	-1060
▁rep	-1061
▁àwa	-1062
▁made	-1063
▁They	-1064
áwọn	-1065
▁báyìí	-1066
▁torí	-1067
▁because	-1068
làyé	-1069
▁thr	-1070
adà	-1071
gùn	-1072
▁others	-1073
eré	-1074
▁ronú	-1075
▁ìdá	-1076
▁Ìjọba	-1077
▁"	-1078
▁Why	-1079
▁feel	-1080
▁brother	-1081
▁rec	-1082
▁serv	-1083
árá	-1084
▁great	-1085
▁ẹnì	-1086
▁tiẹ̀	-1087
ates	-1088
▁ìdílé	-1089
ities	-1090
úkọ	-1091
▁dùn	-1092
▁padà	-1093
innu	-1094
▁ṣí	-1095
ka	-1096
▁mar	-1097
ial	-1098
ult	-1099
▁pl	-1100
tẹ́	-1101
▁Da	-1102
▁Am	-1103
res	-1104
ions	-1105
▁Mí	-1106
▁lear	-1107
▁mímọ́	-1108
▁yà	-1109
▁lọ́nà	-1110
▁òbí	-1111
▁cong	-1112
▁lọ́kàn	-1113
▁ìṣòro	-1114
▁kà	-1115
iṣẹ́	-1116
▁ẹ̀kọ́	-1117
alẹ̀	-1118
áájú	-1119
▁túbọ̀	-1120
▁congreg	-1121
▁aṣ	-1122
▁ún	-1123
▁pray	-1124
▁Kingdom	-1125
▁only	-1126
▁tra	-1127
ṣì	-1128
▁resp	-1129
▁heart	-1130
▁Kò	-1131
king	-1132
bọ	-1133
▁Christians	-1134
vel	-1135
ond	-1136
títọ́	-1137
ought	-1138
ura	-1139
▁family	-1140
▁dec	-1141
▁read	-1142
ORD	-1143
▁This	-1144
▁come	-1145
bò	-1146
lic	-1147
▁end	-1148
▁before	-1149
▁*	-1150
▁ọba	-1151
▁exp	-1152
▁orúkọ	-1153
Ǹjẹ́	-1154
▁LORD	-1155
▁vi	-1156
ount	-1157
▁Jer	-1158
▁every	-1159
phe	-1160
rún	-1161
▁kún	-1162
▁àní	-1163
▁sc	-1164
▁•	-1165
▁If	-1166
▁Ṣé	-1167
▁láì	-1168
▁káwọn	-1169
aking	-1170
▁pr	-1171
▁St	-1172
ara	-1173
▁3:	-1174
▁dúró	-1175
▁Gb	-1176
ze	-1177
▁hand	-1178
pẹ́	-1179
▁láàá	-1180
▁hea	-1181
ples	-1182
rìn	-1183
▁Ọ̀rọ̀	-1184
▁cha	-1185
ting	-1186
▁happ	-1187
▁har	-1188
▁its	-1189
▁fara	-1190
▁nìyẹn	-1191
▁níbẹ̀	-1192
▁nífẹ̀ẹ́	-1193
ents	-1194
▁follow	-1195
own	-1196
▁ro	-1197
▁example	-1198
wọ̀	-1199
ign	-1200
▁then	-1201
orm	-1202
ote	-1203
▁Pict	-1204
ces	-1205
▁kàn	-1206
?”	-1207
▁ìmọ̀	-1208
▁being	-1209
▁V	-1210
ouse	-1211
▁obìnrin	-1212
eter	-1213
▁fáwọn	-1214
oung	-1215
▁dára	-1216
▁ńṣe	-1217
▁ìgbàgbọ́	-1218
▁ṣì	-1219
ave	-1220
▁pri	-1221
▁take	-1222
úù	-1223
▁Ísí	-1224
rẹ́lì	-1225
▁ràn	-1226
jò	-1227
▁ref	-1228
hing	-1229
▁tì	-1230
▁Ǹjẹ́	-1231
▁fà	-1232
▁own	-1233
▁reg	-1234
▁ṣùgbọ́n	-1235
ious	-1236
▁must	-1237
▁co	-1238
ory	-1239
ọkàn	-1240
▁spiritual	-1241
▁láàárín	-1242
ited	-1243
▁Ísírẹ́lì	-1244
ider	-1245
▁ho	-1246
▁wọ̀nyí	-1247
ojú	-1248
▁cl	-1249
▁nìkan	-1250
▁after	-1251
gbẹ̀	-1252
The	-1253
ants	-1254
▁24	-1255
▁call	-1256
▁ìl	-1257
tá	-1258
▁sínú	-1259
íp	-1260
▁ṣiṣẹ́	-1261
▁22	-1262
ká	-1263
▁ka	-1264
▁rò	-1265
ọ̀kan	-1266
act	-1267
sàn	-1268
▁nìdí	-1269
▁king	-1270
selves	-1271
ward	-1272
▁paren	-1273
tun	-1274
post	-1275
iah	-1276
▁gr	-1277
▁2:	-1278
▁well	-1279
▁Do	-1280
▁through	-1281
▁21	-1282
▁ìsìn	-1283
▁díẹ̀	-1284
▁min	-1285
▁show	-1286
ap	-1287
▁tilẹ̀	-1288
ko	-1289
mì	-1290
▁4:	-1291
tu	-1292
inú	-1293
▁might	-1294
▁ìgbésí	-1295
▁reli	-1296
▁Ab	-1297
▁two	-1298
▁congregation	-1299
▁beg	-1300
aching	-1301
▁Ṣe	-1302
yin	-1303
▁name	-1304
igh	-1305
oin	-1306
▁ìrò	-1307
og	-1308
▁inv	-1309
kòó	-1310
▁words	-1311
ship	-1312
ànà	-1313
tàn	-1314
▁just	-1315
▁apost	-1316
▁Mímọ́	-1317
▁heaven	-1318
ft	-1319
únjẹ	-1320
▁yọ	-1321
▁let	-1322
▁ọ̀run	-1323
tó	-1324
▁spe	-1325
▁owó	-1326
hìn	-1327
▁tán	-1328
▁em	-1329
▁da	-1330
dáa	-1331
▁now	-1332
▁túmọ̀	-1333
ope	-1334
▁death	-1335
▁beli	-1336
▁ọwọ́	-1337
ọ́sí	-1338
▁disc	-1339
▁David	-1340
day	-1341
▁ipò	-1342
▁become	-1343
▁Joh	-1344
▁ogun	-1345
▁dájú	-1346
sal	-1347
ace	-1348
▁omi	-1349
▁Al	-1350
oura	-1351
kẹ́kọ̀ọ́	-1352
be	-1353
▁against	-1354
▁pur	-1355
▁att	-1356
▁Má	-1357
▁àá	-1358
éèyàn	-1359
▁ass	-1360
▁Lẹ́yìn	-1361
▁truth	-1362
▁house	-1363
▁long	-1364
▁1:	-1365
▁Àp	-1366
▁war	-1367
cript	-1368
àásù	-1369
ms	-1370
▁lẹ́nu	-1371
▁1,	-1372
zed	-1373
riend	-1374
▁true	-1375
▁rọ	-1376
▁àgbà	-1377
▁young	-1378
uring	-1379
▁give	-1380
urn	-1381
▁Àwòrán	-1382
▁òtítọ́	-1383
▁agbára	-1384
▁tẹ̀mí	-1385
▁new	-1386
béèrè	-1387
▁ìrán	-1388
▁ìjọba	-1389
▁fí	-1390
▁ìs	-1391
ges	-1392
▁found	-1393
▁5:	-1394
▁inf	-1395
▁dáadáa	-1396
▁eff	-1397
ph	-1398
▁Dá	-1399
000	-1400
▁wom	-1401
▁conc	-1402
▁prom	-1403
▁ones	-1404
ors	-1405
▁pres	-1406
▁Kó	-1407
▁reas	-1408
▁bet	-1409
dod	-1410
▁ran	-1411
▁keep	-1412
▁study	-1413
▁No	-1414
▁find	-1415
óòótọ́	-1416
dodo	-1417
tiv	-1418
▁Èyí	-1419
▁burú	-1420
▁John	-1421
bú	-1422
ga	-1423
télì	-1424
ọ́sítélì	-1425
▁parents	-1426
▁sọ́	-1427
éèrè	-1428
jẹ̀	-1429
▁23	-1430
ife	-1431
▁That	-1432
▁6:	-1433
ught	-1434
tù	-1435
ty	-1436
ced	-1437
idi	-1438
▁another	-1439
▁ọ̀ràn	-1440
ating	-1441
▁níbi	-1442
▁ev	-1443
ọ́rùn	-1444
ks	-1445
▁Ṣùgbọ́n	-1446
wá	-1447
ib	-1448
lọ	-1449
ments	-1450
lace	-1451
▁book	-1452
▁méj	-1453
▁tri	-1454
▁ètò	-1455
cy	-1456
▁aláì	-1457
▁part	-1458
▁came	-1459
pàá	-1460
▁prophe	-1461
als	-1462
atch	-1463
▁put	-1464
▁where	-1465
untun	-1466
gbò	-1467
ọ́ni	-1468
ern	-1469
stand	-1470
▁àjọ	-1471
▁wọ	-1472
ṣin	-1473
▁bu	-1474
▁ọkọ	-1475
mon	-1476
▁Pé	-1477
lòmí	-1478
▁fore	-1479
▁oúnjẹ	-1480
mu	-1481
ps	-1482
ójú	-1483
▁Picture	-1484
ya	-1485
▁pub	-1486
ciples	-1487
▁very	-1488
▁25	-1489
▁friend	-1490
▁é	-1491
▁Nínú	-1492
▁tòótọ́	-1493
▁His	-1494
▁much	-1495
ánù	-1496
eli	-1497
▁ọ̀dọ́	-1498
▁dì	-1499
▁ìlànà	-1500
peri	-1501
ged	-1502
▁ẹ́	-1503
▁rel	-1504
▁pẹ́	-1505
hes	-1506
ians	-1507
▁lát	-1508
ical	-1509
▁set	-1510
▁minist	-1511
ens	-1512
▁old	-1513
▁meet	-1514
▁Jẹ́	-1515
enti	-1516
any	-1517
lu	-1518
▁bọ́	-1519
▁land	-1520
▁rece	-1521
ase	-1522
há	-1523
ually	-1524
▁òfin	-1525
vers	-1526
▁ins	-1527
▁hù	-1528
▁To	-1529
▁fì	-1530
iss	-1531
fic	-1532
▁wàásù	-1533
▁brothers	-1534
▁yá	-1535
▁view	-1536
▁times	-1537
▁son	-1538
ire	-1539
ering	-1540
▁get	-1541
▁gra	-1542
ná	-1543
ertain	-1544
▁down	-1545
▁ìbá	-1546
▁ẹlòmí	-1547
átánì	-1548
till	-1549
rec	-1550
▁father	-1551
▁marri	-1552
iri	-1553
▁conf	-1554
▁cour	-1555
mb	-1556
▁kéèyàn	-1557
ẹli	-1558
ites	-1559
▁sec	-1560
▁thin	-1561
orn	-1562
▁ìròyìn	-1563
▁É	-1564
▁Mar	-1565
ular	-1566
▁inte	-1567
oth	-1568
▁mat	-1569
▁bọ̀	-1570
àdé	-1571
áàmù	-1572
bẹ́	-1573
▁There	-1574
▁cle	-1575
▁contin	-1576
▁De	-1577
get	-1578
▁cent	-1579
▁kẹ́kọ̀ọ́	-1580
▁ìránṣẹ́	-1581
▁use	-1582
▁ìd	-1583
▁sún	-1584
▁back	-1585
▁Script	-1586
▁provid	-1587
round	-1588
▁jà	-1589
▁Word	-1590
▁Ọmọ	-1591
.""	-1592
tim	-1593
Ní	-1594
ali	-1595
▁op	-1596
▁kù	-1597
!”	-1598
▁síbẹ̀	-1599
▁Se	-1600
▁ques	-1601
▁Be	-1602
▁ọ̀kan	-1603
▁most	-1604
go	-1605
▁ans	-1606
▁today	-1607
rest	-1608
▁Then	-1609
▁supp	-1610
wọ	-1611
▁Ìṣ	-1612
▁At	-1613
wù	-1614
▁My	-1615
▁place	-1616
▁àt	-1617
dín	-1618
▁arákùnrin	-1619
ruc	-1620
▁Sat	-1621
▁láwọn	-1622
▁each	-1623
eous	-1624
▁ikú	-1625
its	-1626
sẹ	-1627
,000	-1628
▁ẹ̀rí	-1629
▁look	-1630
▁One	-1631
▁béèrè	-1632
írí	-1633
▁ọ̀rẹ́	-1634
▁himself	-1635
vi	-1636
▁ìbéèrè	-1637
▁power	-1638
▁gu	-1639
ere	-1640
▁home	-1641
anu	-1642
gbá	-1643
▁opp	-1644
▁comp	-1645
tle	-1646
▁Torí	-1647
èjì	-1648
▁import	-1649
má	-1650
▁ra	-1651
▁kind	-1652
▁ẹ̀yìn	-1653
▁sim	-1654
▁ẹlẹ́	-1655
▁Un	-1656
▁Some	-1657
read	-1658
▁ṣàlàyé	-1659
fídì	-1660
▁rìn	-1661
▁ẹ̀ṣẹ̀	-1662
òh	-1663
▁Dáfídì	-1664
▁tuntun	-1665
▁Pro	-1666
▁human	-1667
▁rárá	-1668
▁Sátánì	-1669
▁bú	-1670
▁ol	-1671
▁ang	-1672
▁among	-1673
▁car	-1674
▁sur	-1675
jo	-1676
▁experi	-1677
▁gbàdúrà	-1678
▁ẹran	-1679
▁Ọ̀pọ̀	-1680
▁away	-1681
yẹ	-1682
gba	-1683
▁Ìdí	-1684
▁stand	-1685
▁However	-1686
▁word	-1687
ffe	-1688
▁Máa	-1689
▁àkọ́	-1690
ilẹ̀kọ	-1691
▁faithful	-1692
▁Ká	-1693
▁yan	-1694
ian	-1695
▁lit	-1696
▁kọjá	-1697
ished	-1698
làá	-1699
▁tẹ́lẹ̀	-1700
ọwọ́	-1701
plain	-1702
▁kejì	-1703
▁fúnra	-1704
▁àà	-1705
salm	-1706
▁same	-1707
lérí	-1708
▁lead	-1709
▁worship	-1710
▁inst	-1711
▁learn	-1712
▁ṣẹ̀	-1713
▁consider	-1714
▁mind	-1715
▁28	-1716
▁care	-1717
▁days	-1718
tis	-1719
▁Satan	-1720
▁pàá	-1721
▁Síbẹ̀	-1722
fíà	-1723
▁tem	-1724
▁poss	-1725
ick	-1726
▁trans	-1727
oses	-1728
▁New	-1729
ording	-1730
gbó	-1731
▁aff	-1732
vo	-1733
▁par	-1734
▁Ọba	-1735
▁vis	-1736
▁Tá	-1737
▁ọg	-1738
▁àsọ	-1739
▁enc	-1740
▁bless	-1741
fún	-1742
▁Ló	-1743
▁nílò	-1744
kóso	-1745
▁pàápàá	-1746
gá	-1747
tẹ́lẹ̀	-1748
▁never	-1749
▁kankan	-1750
▁kọ́kọ́	-1751
▁apostle	-1752
usal	-1753
▁En	-1754
▁prin	-1755
▁Peter	-1756
lud	-1757
akes	-1758
▁200	-1759
▁run	-1760
▁reason	-1761
▁Your	-1762
líì	-1763
▁pinnu	-1764
xt	-1765
▁She	-1766
▁Mat	-1767
▁Jòh	-1768
▁Father	-1769
ṣi	-1770
mánì	-1771
▁upon	-1772
▁understand	-1773
▁ọkọ̀	-1774
▁peace	-1775
▁news	-1776
▁Ad	-1777
ility	-1778
pin	-1779
ck	-1780
ledge	-1781
ened	-1782
▁Jerusal	-1783
ob	-1784
▁apá	-1785
dù	-1786
▁wife	-1787
▁though	-1788
▁lí	-1789
▁tíì	-1790
▁why	-1791
làáfíà	-1792
az	-1793
iness	-1794
ality	-1795
land	-1796
yànjú	-1797
enef	-1798
úpọ̀	-1799
▁Read	-1800
▁Gbogbo	-1801
alth	-1802
▁sy	-1803
▁dist	-1804
▁tọ	-1805
sáyà	-1806
."	-1807
▁lágbára	-1808
▁hear	-1809
▁With	-1810
▁list	-1811
ues	-1812
▁oò	-1813
edi	-1814
▁mẹ́ta	-1815
▁means	-1816
▁ever	-1817
▁Lọ́	-1818
▁want	-1819
▁fact	-1820
▁mean	-1821
▁▪	-1822
ull	-1823
▁sac	-1824
▁yàtọ̀	-1825
▁called	-1826
▁used	-1827
▁Ba	-1828
nìí	-1829
▁wrote	-1830
▁ìf	-1831
▁26	-1832
▁sáwọn	-1833
▁righteous	-1834
ríkà	-1835
▁àǹfààní	-1836
wu	-1837
▁Jud	-1838
▁ṣá	-1839
ised	-1840
ádùn	-1841
▁centur	-1842
▁ful	-1843
▁alà	-1844
▁ẹ̀yin	-1845
▁After	-1846
tern	-1847
▁often	-1848
▁ìwàásù	-1849
pì	-1850
reng	-1851
gy	-1852
▁láà	-1853
▁ple	-1854
▁wù	-1855
▁àpọ́sítélì	-1856
▁Le	-1857
rent	-1858
▁sórí	-1859
▁gen	-1860
▁form	-1861
ail	-1862
▁appro	-1863
▁sábà	-1864
▁púpọ̀	-1865
▁látinú	-1866
▁bàa	-1867
▁àwòrán	-1868
?’	-1869
ove	-1870
▁eld	-1871
burú	-1872
▁became	-1873
▁too	-1874
gbègbè	-1875
▁téèyàn	-1876
pec	-1877
▁proble	-1878
tẹ̀	-1879
ointed	-1880
▁important	-1881
▁benef	-1882
▁30	-1883
joy	-1884
▁gl	-1885
ying	-1886
▁live	-1887
▁cho	-1888
gbẹ̀rún	-1889
▁certain	-1890
ápá	-1891
▁àlù	-1892
▁òkè	-1893
▁ẹ̀dá	-1894
▁Jòhánù	-1895
▁Ka	-1896
ased	-1897
▁Wor	-1898
▁three	-1899
▁ọgbọ́n	-1900
▁Tim	-1901
rètí	-1902
▁told	-1903
▁ẹ̀sìn	-1904
gbọ	-1905
▁acce	-1906
▁yàn	-1907
alk	-1908
ron	-1909
▁Ilé	-1910
gùntàn	-1911
▁iye	-1912
▁Júù	-1913
lood	-1914
▁òní	-1915
ourage	-1916
▁àkọ́kọ́	-1917
▁count	-1918
▁sub	-1919
angu	-1920
▁aya	-1921
óòmù	-1922
▁ọlọ́	-1923
▁artic	-1924
▁holy	-1925
▁eré	-1926
sin	-1927
▁Róòmù	-1928
dò	-1929
▁went	-1930
▁àyà	-1931
▁streng	-1932
▁bóyá	-1933
▁ìpín	-1934
."""	-1935
láà	-1936
▁course	-1937
▁mà	-1938
▁bójú	-1939
▁given	-1940
▁olóòótọ́	-1941
▁29	-1942
▁num	-1943
hool	-1944
▁Ni	-1945
ently	-1946
▁whom	-1947
▁àpilẹ̀kọ	-1948
gà	-1949
▁bring	-1950
uss	-1951
▁Ará	-1952
fáà	-1953
era	-1954
ili	-1955
rac	-1956
▁mother	-1957
▁enjoy	-1958
”?	-1959
▁gave	-1960
▁took	-1961
▁rántí	-1962
orts	-1963
▁command	-1964
ety	-1965
▁ked	-1966
padà	-1967
▁Láti	-1968
▁láyé	-1969
▁àdúrà	-1970
térù	-1971
▁Isa	-1972
ham	-1973
min	-1974
▁Me	-1975
▁sit	-1976
▁ministry	-1977
▁Pétérù	-1978
▁bẹ	-1979
ural	-1980
▁answ	-1981
icked	-1982
▁ent	-1983
▁lọ́dún	-1984
▁kọ̀wé	-1985
▁sm	-1986
▁hope	-1987
▁án	-1988
▁àrùn	-1989
tice	-1990
▁òkú	-1991
▁balẹ̀	-1992
yọ	-1993
▁sìn	-1994
▁perf	-1995
▁ìtàn	-1996
▁àmì	-1997
▁interest	-1998
▁still	-1999
▁writ	-2000
▁láé	-2001
gbọ̀n	-2002
▁kedere	-2003
▁Fi	-2004
ember	-2005
▁rọrùn	-2006
▁thought	-2007
▁fojú	-2008
▁búburú	-2009
▁ìyàwó	-2010
▁nor	-2011
▁gbádùn	-2012
▁31	-2013
▁ya	-2014
▁àṣẹ	-2015
not	-2016
▁Sáàmù	-2017
int	-2018
▁ṣáájú	-2019
▁Mó	-2020
▁pát	-2021
▁express	-2022
▁ret	-2023
▁belie	-2024
▁remain	-2025
▁fear	-2026
▁es	-2027
▁themselves	-2028
▁2.	-2029
▁201	-2030
▁4.	-2031
▁tè	-2032
hún	-2033
▁dep	-2034
elt	-2035
▁Can	-2036
▁Rom	-2037
▁began	-2038
▁requ	-2039
▁Wo	-2040
▁para	-2041
▁val	-2042
▁Moses	-2043
▁méjè	-2044
▁Z	-2045
▁lórílẹ̀	-2046
▁serve	-2047
▁occ	-2048
band	-2049
▁tẹ	-2050
▁dàgbà	-2051
▁fin	-2052
lọ́wọ́	-2053
▁27	-2054
▁joy	-2055
▁saying	-2056
▁speak	-2057
▁explain	-2058
▁igi	-2059
▁during	-2060
▁knowledge	-2061
▁12:	-2062
▁langu	-2063
▁aṣáájú	-2064
▁),	-2065
ense	-2066
▁dest	-2067
sílẹ̀	-2068
▁suff	-2069
▁high	-2070
▁wáyé	-2071
▁adv	-2072
▁ill	-2073
rọ	-2074
ames	-2075
▁coun	-2076
▁san	-2077
▁ìhìn	-2078
▁méjèèjì	-2079
usband	-2080
▁disciples	-2081
▁later	-2082
▁lọ́dọ̀	-2083
▁àlàáfíà	-2084
▁sist	-2085
ric	-2086
me	-2087
ody	-2088
ádìí	-2089
òó	-2090
▁without	-2091
▁Ìgbà	-2092
▁By	-2093
ustra	-2094
▁includ	-2095
ways	-2096
▁táa	-2097
▁rest	-2098
▁bi	-2099
▁Kọ́	-2100
▁Sam	-2101
dition	-2102
ne	-2103
▁ìpàdé	-2104
rew	-2105
▁ways	-2106
bs	-2107
ṣo	-2108
▁city	-2109
illed	-2110
▁far	-2111
▁10.	-2112
▁lọ́jọ́	-2113
▁ṣo	-2114
ass	-2115
▁Ẹni	-2116
ection	-2117
▁ìjọsìn	-2118
▁Jó	-2119
▁àjọṣe	-2120
pose	-2121
▁àṣà	-2122
▁Heb	-2123
ṣó	-2124
▁Watch	-2125
▁Èmi	-2126
arly	-2127
▁prac	-2128
▁ìy	-2129
▁lóye	-2130
pe	-2131
kind	-2132
bo	-2133
dùn	-2134
àwọn	-2135
▁nílé	-2136
kẹ̀	-2137
▁Hé	-2138
ẹ́lì	-2139
▁wicked	-2140
duc	-2141
ìíní	-2142
▁Ti	-2143
àlẹ̀	-2144
▁able	-2145
gbọràn	-2146
▁ṣíṣe	-2147
lose	-2148
Ẹ̀	-2149
jáde	-2150
fúnni	-2151
▁husband	-2152
▁wé	-2153
keré	-2154
▁preaching	-2155
jíṣẹ́	-2156
▁ìbí	-2157
▁àlùfáà	-2158
▁pol	-2159
▁bàbá	-2160
▁both	-2161
▁service	-2162
▁living	-2163
▁jud	-2164
▁Jerusalem	-2165
èé	-2166
▁mon	-2167
▁full	-2168
▁won	-2169
▁dra	-2170
ages	-2171
▁spec	-2172
▁yẹ̀	-2173
▁Já	-2174
▁loving	-2175
▁bap	-2176
▁doing	-2177
▁òdodo	-2178
▁servants	-2179
omet	-2180
ie	-2181
row	-2182
dó	-2183
▁199	-2184
▁ẹgbẹ́	-2185
▁Scriptures	-2186
▁iwájú	-2187
▁while	-2188
▁sacri	-2189
▁invol	-2190
▁relations	-2191
gether	-2192
▁tell	-2193
▁gbí	-2194
elf	-2195
▁"""	-2196
kẹ	-2197
titu	-2198
IN	-2199
▁diffe	-2200
▁Psalm	-2201
▁woman	-2202
▁sun	-2203
▁ter	-2204
ira	-2205
▁since	-2206
irc	-2207
▁Matthe	-2208
▁ru	-2209
▁gbó	-2210
▁pass	-2211
▁Sa	-2212
▁Matthew	-2213
tíù	-2214
▁Bẹ́ẹ̀	-2215
▁seem	-2216
▁Our	-2217
reci	-2218
▁ìyà	-2219
lógún	-2220
▁Con	-2221
▁ìyá	-2222
▁darí	-2223
kòókò	-2224
rúurú	-2225
▁8.	-2226
▁Mósè	-2227
▁dáhùn	-2228
thing	-2229
▁ọ̀dọ̀	-2230
▁Inú	-2231
▁however	-2232
▁alàgbà	-2233
▁sẹ́	-2234
gọ́	-2235
kẹ́ni	-2236
▁public	-2237
▁ìgbéyàwó	-2238
til	-2239
▁jó	-2240
▁nípasẹ̀	-2241
▁allow	-2242
▁10:	-2243
ìní	-2244
▁Li	-2245
yes	-2246
gàn	-2247
▁wú	-2248
▁oṣù	-2249
ission	-2250
▁rú	-2251
▁marriage	-2252
ired	-2253
▁dán	-2254
▁str	-2255
mó	-2256
velop	-2257
▁always	-2258
ek	-2259
fied	-2260
ected	-2261
▁Abra	-2262
▁lónìí	-2263
tay	-2264
tara	-2265
▁Mátíù	-2266
▁sons	-2267
▁7.	-2268
gra	-2269
▁ap	-2270
▁fellow	-2271
▁together	-2272
▁making	-2273
▁Nípa	-2274
omething	-2275
Àwọn	-2276
▁La	-2277
Ọ́	-2278
▁si	-2279
ween	-2280
▁add	-2281
▁nílẹ̀	-2282
▁think	-2283
lùú	-2284
rection	-2285
lọ̀	-2286
▁Lè	-2287
▁píp	-2288
▁síwájú	-2289
tè	-2290
▁century	-2291
▁food	-2292
over	-2293
▁face	-2294
els	-2295
sán	-2296
▁12.	-2297
▁imm	-2298
▁Israẹli	-2299
▁spok	-2300
▁asked	-2301
tical	-2302
▁ẹlòmíràn	-2303
uch	-2304
▁ẹsẹ	-2305
▁present	-2306
▁baba	-2307
▁11:	-2308
ròrò	-2309
ríà	-2310
▁head	-2311
ser	-2312
▁recei	-2313
▁ind	-2314
Ọ̀	-2315
▁indi	-2316
▁sent	-2317
▁dìde	-2318
▁prayer	-2319
▁attend	-2320
▁Even	-2321
▁14.	-2322
▁Ne	-2323
▁5.	-2324
▁From	-2325
▁kékeré	-2326
▁last	-2327
bu	-2328
▁Cor	-2329
▁mor	-2330
bì	-2331
▁ìṣẹ̀	-2332
▁sẹ́yìn	-2333
▁ayọ̀	-2334
▁result	-2335
▁àgùntàn	-2336
▁Amẹ́	-2337
oub	-2338
▁between	-2339
vor	-2340
▁Amẹ́ríkà	-2341
yẹ̀	-2342
pé	-2343
bùn	-2344
▁Yes	-2345
▁ẹnu	-2346
▁diff	-2347
▁eyes	-2348
▁9.	-2349
▁close	-2350
ept	-2351
▁Orí	-2352
▁ọgọ́rùn	-2353
ring	-2354
▁teach	-2355
▁ìyè	-2356
▁débi	-2357
▁lábẹ́	-2358
▁Yet	-2359
urned	-2360
rànlọ́wọ́	-2361
llen	-2362
▁11.	-2363
▁17.	-2364
▁aṣọ	-2365
▁near	-2366
▁regard	-2367
▁òjíṣẹ́	-2368
▁ín	-2369
▁13.	-2370
▁toward	-2371
ER	-2372
▁done	-2373
redit	-2374
▁Oní	-2375
▁ìpinnu	-2376
▁Sàn	-2377
ines	-2378
▁Lord	-2379
▁comple	-2380
▁lẹ́kọ̀ọ́	-2381
▁water	-2382
▁personal	-2383
▁article	-2384
▁ẹbọ	-2385
▁Many	-2386
▁Òwe	-2387
fully	-2388
▁something	-2389
róró	-2390
oney	-2391
▁order	-2392
▁Ph	-2393
▁free	-2394
▁hard	-2395
▁33	-2396
▁law	-2397
▁loc	-2398
ths	-2399
▁pèsè	-2400
▁sure	-2401
Kí	-2402
▁nìṣó	-2403
▁Irú	-2404
▁Son	-2405
▁láyọ̀	-2406
▁kọ̀ọ̀kan	-2407
▁yòó	-2408
,’	-2409
bọmi	-2410
▁Ar	-2411
isdom	-2412
▁having	-2413
lẹ́yìn	-2414
▁Kódà	-2415
▁purpose	-2416
▁mess	-2417
Mo	-2418
▁ìmọ̀ràn	-2419
▁individ	-2420
▁relationship	-2421
▁burúkú	-2422
▁school	-2423
▁appreci	-2424
▁hùwà	-2425
▁hon	-2426
▁develop	-2427
ror	-2428
inlẹ̀	-2429
▁Baba	-2430
▁7:	-2431
though	-2432
▁àjò	-2433
▁humans	-2434
ápátá	-2435
▁really	-2436
▁someone	-2437
▁situ	-2438
▁brought	-2439
▁kẹ	-2440
kóhun	-2441
▁med	-2442
▁self	-2443
ug	-2444
ital	-2445
uture	-2446
void	-2447
▁fò	-2448
bérù	-2449
ters	-2450
▁13:	-2451
lẹ	-2452
▁Jere	-2453
▁deep	-2454
▁left	-2455
ational	-2456
are	-2457
uthor	-2458
▁Hébérù	-2459
▁15.	-2460
▁circ	-2461
▁pátápátá	-2462
je	-2463
▁6.	-2464
dàá	-2465
▁16.	-2466
gious	-2467
rug	-2468
uly	-2469
▁níwájú	-2470
tún	-2471
▁Fo	-2472
bàá	-2473
mber	-2474
gẹ́lì	-2475
▁ẹ̀jẹ̀	-2476
nd	-2477
rìbọmi	-2478
▁aráyé	-2479
▁kìíní	-2480
deed	-2481
▁ṣoṣo	-2482
▁questions	-2483
ose	-2484
▁Bákan	-2485
▁mankind	-2486
yl	-2487
titude	-2488
▁id	-2489
oni	-2490
bùkún	-2491
▁decis	-2492
▁márùn	-2493
▁ọmọdé	-2494
▁3.	-2495
▁Now	-2496
▁Tr	-2497
▁32	-2498
▁sọ́dọ̀	-2499
▁counsel	-2500
▁prot	-2501
▁Let	-2502
▁ibẹ̀	-2503
ON	-2504
sọfúnni	-2505
▁15,	-2506
▁sla	-2507
▁number	-2508
man	-2509
▁parí	-2510
▁ext	-2511
▁àsọtẹ́lẹ̀	-2512
▁Mi	-2513
▁obser	-2514
▁Sànmánì	-2515
gó	-2516
ecause	-2517
▁láǹfààní	-2518
ji	-2519
▁little	-2520
▁individual	-2521
hold	-2522
▁Gẹ́gẹ́	-2523
▁bad	-2524
▁ẹ̀yà	-2525
▁wọ̀	-2526
ṣè	-2527
pẹ	-2528
éjọ	-2529
▁Sá	-2530
▁ẹnikẹ́ni	-2531
AN	-2532
▁Him	-2533
▁conduc	-2534
▁health	-2535
úni	-2536
▁bl	-2537
▁blood	-2538
wàá	-2539
▁few	-2540
▁òróró	-2541
▁Aí	-2542
▁Br	-2543
fort	-2544
▁fọwọ́	-2545
ner	-2546
▁religious	-2547
édé	-2548
ki	-2549
yì	-2550
rúndún	-2551
▁fac	-2552
▁saw	-2553
You	-2554
ute	-2555
▁future	-2556
ìyànjú	-2557
ọ́ọ̀ṣì	-2558
▁Ex	-2559
wùjọ	-2560
▁chang	-2561
▁ga	-2562
▁onírúurú	-2563
ṣọ́	-2564
▁Iṣẹ́	-2565
▁prod	-2566
▁Kì	-2567
▁;	-2568
▁less	-2569
▁build	-2570
▁descri	-2571
▁dó	-2572
outh	-2573
ition	-2574
ọ́rọ̀	-2575
▁wise	-2576
▁yourself	-2577
lòó	-2578
hel	-2579
▁Sol	-2580
Ẹ́	-2581
app	-2582
▁god	-2583
kítà	-2584
yẹ̀wò	-2585
lect	-2586
ńgẹ́lì	-2587
gani	-2588
▁Com	-2589
▁cor	-2590
▁ìtọ́	-2591
▁Sin	-2592
▁support	-2593
▁World	-2594
▁ṣé	-2595
if	-2596
ars	-2597
ost	-2598
▁learned	-2599
▁friends	-2600
▁káà	-2601
▁ìrètí	-2602
▁All	-2603
gin	-2604
ead	-2605
▁gover	-2606
▁helped	-2607
▁ọ̀rúndún	-2608
▁ṣẹ̀ṣẹ̀	-2609
▁del	-2610
▁pos	-2611
arted	-2612
▁ohunkóhun	-2613
▁strong	-2614
▁yọ̀	-2615
▁best	-2616
ret	-2617
▁diffic	-2618
▁wisdom	-2619
▁main	-2620
▁Lé	-2621
▁ṣẹ́	-2622
acher	-2623
▁gí	-2624
▁ìbẹ̀	-2625
▁rul	-2626
▁Cons	-2627
ìmọ̀	-2628
ótí	-2629
▁wòlíì	-2630
▁bù	-2631
▁evid	-2632
vil	-2633
▁Olù	-2634
▁ìwọ̀n	-2635
▁gener	-2636
▁Arákùnrin	-2637
laim	-2638
aken	-2639
ither	-2640
▁Credit	-2641
▁ná	-2642
▁priv	-2643
▁resur	-2644
ature	-2645
▁nílùú	-2646
▁known	-2647
▁experience	-2648
dìí	-2649
▁Lu	-2650
▁felt	-2651
▁following	-2652
mit	-2653
▁Isaiah	-2654
▁real	-2655
▁Ábú	-2656
▁fulf	-2657
ects	-2658
▁nations	-2659
▁Sp	-2660
▁Bo	-2661
den	-2662
▁grou	-2663
verbs	-2664
júwe	-2665
ES	-2666
▁better	-2667
mìn	-2668
yèsí	-2669
▁author	-2670
èjúwe	-2671
ling	-2672
▁according	-2673
▁ẹgbẹ̀rún	-2674
édéé	-2675
▁TH	-2676
▁Who	-2677
kéyìí	-2678
▁wrong	-2679
▁Fún	-2680
cts	-2681
reed	-2682
▁mod	-2683
ially	-2684
▁wonder	-2685
▁ìdájọ́	-2686
▁women	-2687
▁Pe	-2688
▁Ayé	-2689
▁gbẹ́	-2690
▁discuss	-2691
ances	-2692
▁activ	-2693
yal	-2694
▁respect	-2695
▁inform	-2696
sùn	-2697
▁cannot	-2698
▁trust	-2699
ione	-2700
▁ìsàlẹ̀	-2701
▁èyíkéyìí	-2702
▁lives	-2703
▁mill	-2704
▁meetings	-2705
▁kíyè	-2706
▁ask	-2707
▁Ọ̀nà	-2708
▁avoid	-2709
▁around	-2710
ṣí	-2711
▁8,	-2712
▁lóde	-2713
▁mò	-2714
▁Wọn	-2715
▁grow	-2716
ọ́nì	-2717
▁mélòó	-2718
▁ọ̀tọ̀	-2719
▁problems	-2720
fù	-2721
new	-2722
▁cri	-2723
ari	-2724
▁These	-2725
▁witness	-2726
hys	-2727
▁Aísáyà	-2728
ark	-2729
▁language	-2730
▁3,	-2731
▁reve	-2732
rect	-2733
▁turn	-2734
▁Abraham	-2735
▁ìkẹ́kọ̀ọ́	-2736
ange	-2737
▁dead	-2738
▁Proverbs	-2739
ood	-2740
▁iná	-2741
▁Solom	-2742
ójútó	-2743
right	-2744
▁four	-2745
▁deter	-2746
▁happy	-2747
▁194	-2748
▁money	-2749
ject	-2750
▁deal	-2751
ǹde	-2752
▁sw	-2753
ured	-2754
▁gbìyànjú	-2755
▁Gree	-2756
▁respons	-2757
rúkọ	-2758
▁rọ̀	-2759
▁whe	-2760
úgbò	-2761
▁needed	-2762
▁Wh	-2763
▁believe	-2764
▁Egy	-2765
▁ipa	-2766
▁ọmọbìnrin	-2767
osp	-2768
áàbò	-2769
▁matter	-2770
▁àgbègbè	-2771
▁possible	-2772
▁pípé	-2773
▁olórí	-2774
▁different	-2775
▁until	-2776
▁listen	-2777
▁sókè	-2778
eld	-2779
lished	-2780
▁challen	-2781
▁continue	-2782
▁tre	-2783
ards	-2784
▁answer	-2785
bed	-2786
▁Line	-2787
▁retí	-2788
ued	-2789
sálẹ́	-2790
▁déédéé	-2791
▁Ábúrá	-2792
ousand	-2793
inth	-2794
▁Gírí	-2795
▁succ	-2796
▁eas	-2797
▁ìjà	-2798
▁Lo	-2799
▁record	-2800
▁pione	-2801
ńtì	-2802
ution	-2803
▁light	-2804
▁Of	-2805
▁múra	-2806
▁Gíríì	-2807
▁18.	-2808
▁Jose	-2809
urther	-2810
taya	-2811
▁open	-2812
kọtaya	-2813
jù	-2814
ined	-2815
oul	-2816
▁àìsàn	-2817
ale	-2818
▁See	-2819
tention	-2820
▁15:	-2821
▁phys	-2822
▁share	-2823
lf	-2824
úsálẹ́	-2825
úsálẹ́mù	-2826
▁níṣ	-2827
▁dú	-2828
▁Gen	-2829
▁age	-2830
use	-2831
cient	-2832
sp	-2833
▁whole	-2834
rìíra	-2835
▁yé	-2836
▁night	-2837
▁relig	-2838
stem	-2839
▁heard	-2840
▁sex	-2841
haps	-2842
▁Bet	-2843
▁ẹ̀bùn	-2844
▁confid	-2845
▁govern	-2846
rison	-2847
▁Jerúsálẹ́mù	-2848
▁8:	-2849
ork	-2850
soci	-2851
▁ànímọ́	-2852
▁Ẹ̀kọ́	-2853
▁mater	-2854
▁transl	-2855
▁àd	-2856
▁mẹ́rin	-2857
▁organi	-2858
▁Because	-2859
▁báwo	-2860
▁desire	-2861
▁Di	-2862
▁ipá	-2863
▁hist	-2864
▁message	-2865
bor	-2866
rẹ̀lẹ̀	-2867
▁elders	-2868
▁áńgẹ́lì	-2869
▁ọmọkùnrin	-2870
▁óò	-2871
▁Jos	-2872
▁anointed	-2873
▁tètè	-2874
▁ìṣe	-2875
▁daught	-2876
▁Israelites	-2877
▁kéré	-2878
▁ìran	-2879
▁tò	-2880
▁arábìnrin	-2881
para	-2882
▁ẹsẹ̀	-2883
▁ìrí	-2884
▁ṣàkóso	-2885
▁olú	-2886
▁Joseph	-2887
▁ṣòro	-2888
▁associ	-2889
mbers	-2890
▁viol	-2891
othy	-2892
▁mer	-2893
▁Ojú	-2894
▁Ìṣe	-2895
andan	-2896
▁fẹ́ràn	-2897
▁states	-2898
▁èso	-2899
▁received	-2900
▁sapá	-2901
▁creat	-2902
▁Consider	-2903
tized	-2904
▁ọ̀tá	-2905
.’”	-2906
dájú	-2907
▁difficult	-2908
▁jìn	-2909
▁jíròrò	-2910
ately	-2911
▁system	-2912
▁Òfin	-2913
then	-2914
▁treat	-2915
▁comfort	-2916
▁body	-2917
anted	-2918
▁thus	-2919
Bí	-2920
ỌN	-2921
▁early	-2922
▁Will	-2923
▁cause	-2924
ẹ̀ẹ́sì	-2925
uru	-2926
▁fúnni	-2927
▁met	-2928
▁àpéjọ	-2929
ication	-2930
▁Gẹ̀ẹ́sì	-2931
▁question	-2932
fì	-2933
▁along	-2934
▁Eli	-2935
▁lar	-2936
▁kingdom	-2937
kejì	-2938
ríńtì	-2939
sìnyí	-2940
And	-2941
▁kódà	-2942
▁accom	-2943
▁yet	-2944
▁Kọ́ríńtì	-2945
▁Wà	-2946
sting	-2947
▁don	-2948
ẹ̀yìn	-2949
▁oòrùn	-2950
▁Corinth	-2951
▁Te	-2952
▁Ìyẹn	-2953
▁ourselves	-2954
urch	-2955
vent	-2956
ẹ́sí	-2957
▁ẹrú	-2958
▁bẹ̀rù	-2959
óòbù	-2960
▁195	-2961
▁àfi	-2962
▁Timothy	-2963
ences	-2964
kọsílẹ̀	-2965
▁benefit	-2966
▁success	-2967
▁jì	-2968
▁Láì	-2969
▁gbá	-2970
▁teaching	-2971
ests	-2972
ging	-2973
vis	-2974
▁iss	-2975
joojú	-2976
▁Like	-2977
▁died	-2978
▁ẹlòmíì	-2979
ẹnu	-2980
hámù	-2981
▁caus	-2982
joojúmọ́	-2983
▁feelings	-2984
▁Ta	-2985
▁account	-2986
▁14:	-2987
▁next	-2988
dínlógún	-2989
pó	-2990
ayá	-2991
▁ìlérí	-2992
▁Ké	-2993
▁ìrànlọ́wọ́	-2994
▁fun	-2995
ciety	-2996
ma	-2997
▁ogún	-2998
▁dín	-2999
mìnira	-3000
mótì	-3001
▁fífi	-3002
ins	-3003
pecially	-3004
▁members	-3005
▁Ábúráhámù	-3006
▁Jóòbù	-3007
▁small	-3008
▁rẹ́	-3009
tower	-3010
▁contro	-3011
▁ṣọ́	-3012
▁191	-3013
da	-3014
▁Tímótì	-3015
▁giving	-3016
▁Job	-3017
▁méje	-3018
▁fail	-3019
▁regular	-3020
▁situation	-3021
ruction	-3022
▁Kà	-3023
▁tipa	-3024
uel	-3025
gboyà	-3026
▁heavenly	-3027
WỌN	-3028
▁Àlàyé	-3029
▁6,	-3030
▁lẹ́tà	-3031
▁Ke	-3032
▁àbá	-3033
itate	-3034
▁visit	-3035
▁19.	-3036
▁inter	-3037
▁thousand	-3038
▁gidi	-3039
cent	-3040
▁Bab	-3041
▁wu	-3042
úùkù	-3043
▁bir	-3044
▁tọkọtaya	-3045
▁ìbùkún	-3046
au	-3047
▁Lúùkù	-3048
▁receive	-3049
▁mẹ́wàá	-3050
▁mag	-3051
▁material	-3052
▁fine	-3053
▁conduct	-3054
▁Adam	-3055
▁Solomon	-3056
yed	-3057
▁Luke	-3058
▁9,	-3059
▁eat	-3060
▁prophet	-3061
▁Saul	-3062
▁act	-3063
▁bre	-3064
▁mention	-3065
▁talk	-3066
▁lóòótọ́	-3067
Th	-3068
unity	-3069
sec	-3070
▁moved	-3071
▁Fí	-3072
▁ẹ̀ka	-3073
▁òótọ́	-3074
▁nothing	-3075
▁5,	-3076
hab	-3077
▁going	-3078
▁makes	-3079
wí	-3080
ọ̀nà	-3081
▁baptized	-3082
áàá	-3083
▁àf	-3084
▁Jews	-3085
▁ìkó	-3086
kọ́bù	-3087
▁thing	-3088
▁òye	-3089
ises	-3090
▁Thus	-3091
omes	-3092
▁ṣètò	-3093
▁9:	-3094
▁soon	-3095
▁ìtẹ̀	-3096
▁More	-3097
▁case	-3098
▁ancient	-3099
▁ọ̀hún	-3100
▁likely	-3101
▁knew	-3102
▁Although	-3103
do	-3104
▁kókó	-3105
▁ìtẹ́	-3106
▁loyal	-3107
tit	-3108
....	-3109
miah	-3110
mọ̀ràn	-3111
▁Q	-3112
▁Mà	-3113
▁May	-3114
▁èké	-3115
▁soul	-3116
▁needs	-3117
▁ọmọlẹ́yìn	-3118
▁ìb	-3119
▁17:	-3120
rànwọ́	-3121
▁temple	-3122
4,	-3123
come	-3124
▁dáàbò	-3125
▁Yà	-3126
ọ̀ngàn	-3127
ressed	-3128
cious	-3129
▁exer	-3130
▁sílé	-3131
val	-3132
▁el	-3133
wàásù	-3134
▁offer	-3135
▁kọ́ni	-3136
▁serious	-3137
ered	-3138
▁Col	-3139
▁hold	-3140
jìn	-3141
▁ìṣà	-3142
ining	-3143
lish	-3144
▁destro	-3145
▁country	-3146
▁complete	-3147
▁Dí	-3148
alse	-3149
▁Law	-3150
▁sense	-3151
1,	-3152
asure	-3153
▁serving	-3154
wẹ̀	-3155
▁tọ́jú	-3156
▁fru	-3157
▁àárín	-3158
▁Ńṣe	-3159
▁nation	-3160
▁simil	-3161
▁Só	-3162
▁incre	-3163
▁especially	-3164
▁Not	-3165
▁including	-3166
▁accep	-3167
wádìí	-3168
▁gbàgbé	-3169
▁attention	-3170
▁24:	-3171
▁àyí	-3172
▁illustra	-3173
▁mil	-3174
enced	-3175
▁gain	-3176
▁tẹ́ń	-3177
▁information	-3178
▁Alá	-3179
▁Dani	-3180
▁willing	-3181
▁Acc	-3182
rib	-3183
sẹ́	-3184
▁orin	-3185
lọpọ̀	-3186
▁works	-3187
gbìmọ̀	-3188
▁strengthen	-3189
cial	-3190
▁opport	-3191
▁comes	-3192
▁37	-3193
▁ed	-3194
▁Does	-3195
▁Foot	-3196
eal	-3197
▁35	-3198
osed	-3199
▁insp	-3200
▁Ádá	-3201
▁James	-3202
▁Ìwọ	-3203
▁point	-3204
▁Or	-3205
▁bel	-3206
▁bro	-3207
▁Greek	-3208
9,	-3209
pù	-3210
ached	-3211
hol	-3212
▁Those	-3213
▁bas	-3214
▁Are	-3215
▁dojú	-3216
▁influ	-3217
▁Sh	-3218
▁pín	-3219
▁exist	-3220
rọ́	-3221
▁Ilẹ̀	-3222
▁rèé	-3223
▁òṣì	-3224
▁kalẹ̀	-3225
▁provide	-3226
▁40	-3227
▁encoura	-3228
cus	-3229
ger	-3230
▁Man	-3231
gn	-3232
▁cam	-3233
dọ́ta	-3234
▁Acts	-3235
▁òpin	-3236
▁màá	-3237
▁compa	-3238
▁cou	-3239
zation	-3240
▁spoke	-3241
▁sùn	-3242
kẹyìn	-3243
▁ìsọfúnni	-3244
Èmi	-3245
▁oògùn	-3246
vin	-3247
hálà	-3248
▁appear	-3249
▁principles	-3250
reet	-3251
▁reading	-3252
▁ọ̀kẹ́	-3253
▁Ádámù	-3254
▁unc	-3255
▁Yàtọ̀	-3256
▁dandan	-3257
▁lu	-3258
èdè	-3259
▁Eng	-3260
▁change	-3261
▁kindness	-3262
▁privile	-3263
▁taken	-3264
ánwò	-3265
ua	-3266
igned	-3267
wọ́n	-3268
▁col	-3269
▁past	-3270
▁reali	-3271
▁Àwa	-3272
orted	-3273
▁síbi	-3274
oro	-3275
▁ur	-3276
▁plac	-3277
yanu	-3278
▁4,	-3279
lùkù	-3280
▁meaning	-3281
▁jinlẹ̀	-3282
▁special	-3283
tẹ	-3284
▁cre	-3285
▁pàdé	-3286
vere	-3287
iver	-3288
▁suffering	-3289
olog	-3290
▁stri	-3291
▁hands	-3292
▁pati	-3293
▁wọlé	-3294
fy	-3295
ply	-3296
▁sing	-3297
lasting	-3298
▁United	-3299
▁Far	-3300
▁tọ̀	-3301
aring	-3302
fo	-3303
▁press	-3304
▁ìṣẹ̀lẹ̀	-3305
▁láàyè	-3306
▁20.	-3307
ative	-3308
ọ̀nù	-3309
▁pẹ	-3310
▁yanjú	-3311
bíni	-3312
rìṣà	-3313
▁perfect	-3314
▁ìrà	-3315
▁Judah	-3316
▁sisters	-3317
▁Òun	-3318
▁seen	-3319
▁Watchtower	-3320
angba	-3321
▁second	-3322
▁sk	-3323
We	-3324
etí	-3325
▁2,	-3326
kiri	-3327
▁return	-3328
well	-3329
▁produc	-3330
▁wanted	-3331
▁forever	-3332
▁whether	-3333
lesh	-3334
▁accept	-3335
▁hour	-3336
▁disci	-3337
▁Corinthians	-3338
▁Gíríìkì	-3339
▁clean	-3340
fò	-3341
▁ÀWỌN	-3342
▁dípò	-3343
si	-3344
tán	-3345
JÚ	-3346
▁doub	-3347
▁forgi	-3348
▁mọ́ra	-3349
▁Wa	-3350
▁attitude	-3351
kúlùkù	-3352
▁ìpínlẹ̀	-3353
ries	-3354
▁false	-3355
na	-3356
▁àgọ́	-3357
▁circum	-3358
▁jókòó	-3359
▁21.	-3360
▁est	-3361
fice	-3362
vail	-3363
▁14,	-3364
▁field	-3365
▁int	-3366
▁sọ́nà	-3367
ala	-3368
▁ọgbà	-3369
▁therefore	-3370
ism	-3371
▁akẹ́kọ̀ọ́	-3372
▁òkun	-3373
▁married	-3374
▁thinking	-3375
wú	-3376
pìlì	-3377
wise	-3378
▁àṣe	-3379
▁common	-3380
▁religion	-3381
▁bus	-3382
▁taught	-3383
▁mẹ́rìn	-3384
▁kárí	-3385
aster	-3386
fíì	-3387
▁vo	-3388
rigin	-3389
gress	-3390
▁beha	-3391
gbàgbọ́	-3392
TI	-3393
▁group	-3394
▁borí	-3395
▁1.	-3396
▁here	-3397
amed	-3398
▁ẹ̀rọ	-3399
▁tiwọn	-3400
▁ÌW	-3401
▁Kàkà	-3402
▁Àpọ́sítélì	-3403
kúṣe	-3404
ended	-3405
▁fall	-3406
▁flesh	-3407
▁gbè	-3408
▁Egypt	-3409
▁ẹranko	-3410
▁Creat	-3411
▁mẹ́tà	-3412
▁ìdáhùn	-3413
▁proc	-3414
rence	-3415
dea	-3416
yẹ́	-3417
rẹ̀ẹ́	-3418
▁righteousness	-3419
har	-3420
mar	-3421
ults	-3422
vine	-3423
yọrí	-3424
▁ṣèlérí	-3425
ties	-3426
▁Since	-3427
▁taking	-3428
▁begin	-3429
gbéyàwó	-3430
mọ́nì	-3431
▁Ẹlẹ́dàá	-3432
▁ma	-3433
ilt	-3434
▁Such	-3435
▁individuals	-3436
▁Ara	-3437
▁maintain	-3438
ogni	-3439
▁Therefore	-3440
ṣíà	-3441
ires	-3442
líọ̀nù	-3443
▁àwùjọ	-3444
úú	-3445
ṣinṣin	-3446
▁strength	-3447
▁ọn	-3448
ánil	-3449
▁Sim	-3450
▁lim	-3451
ẹ̀kun	-3452
▁fruit	-3453
▁lẹ́ẹ̀	-3454
▁fl	-3455
▁respond	-3456
3,	-3457
▁Daniel	-3458
mà	-3459
▁THE	-3460
▁ọrọ̀	-3461
▁While	-3462
▁similar	-3463
▁determin	-3464
▁sacrifice	-3465
▁Pictures	-3466
If	-3467
▁máà	-3468
mp	-3469
▁Af	-3470
▁drin	-3471
mọ́lẹ̀	-3472
0,	-3473
ṣọ́n	-3474
▁According	-3475
stra	-3476
undred	-3477
▁gives	-3478
▁kíkún	-3479
▁followers	-3480
▁stay	-3481
ọ́rin	-3482
▁conven	-3483
▁wọ̀nyẹn	-3484
▁ṣọ́ọ̀ṣì	-3485
Do	-3486
▁prof	-3487
alities	-3488
▁Creator	-3489
▁control	-3490
▁tàwọn	-3491
▁wàhálà	-3492
▁dárí	-3493
▁play	-3494
mìí	-3495
▁happiness	-3496
gójì	-3497
oday	-3498
▁emo	-3499
▁ògo	-3500
cience	-3501
▁encourage	-3502
▁liter	-3503
.,	-3504
ku	-3505
▁Íń	-3506
▁large	-3507
▁tan	-3508
▁ró	-3509
▁ṣàp	-3510
alking	-3511
▁anyone	-3512
▁mission	-3513
▁Rí	-3514
velation	-3515
▁Èṣù	-3516
▁Hall	-3517
▁pain	-3518
▁lókun	-3519
▁coming	-3520
▁ú	-3521
ases	-3522
▁Sc	-3523
sìkò	-3524
▁try	-3525
▁tẹ́ńpìlì	-3526
idig	-3527
▁ded	-3528
▁létí	-3529
▁prepa	-3530
▁contra	-3531
▁ẹjọ́	-3532
ípayá	-3533
tọ̀dọ̀	-3534
▁fẹ́rẹ̀ẹ́	-3535
dùúgbò	-3536
▁aláṣẹ	-3537
idigidi	-3538
ided	-3539
▁Èdè	-3540
▁mẹ́fà	-3541
▁People	-3542
▁ṣèrìbọmi	-3543
▁sal	-3544
▁lọ́rùn	-3545
lec	-3546
nárì	-3547
jẹ̀mú	-3548
▁class	-3549
ell	-3550
▁Ser	-3551
▁written	-3552
It	-3553
▁apply	-3554
▁indic	-3555
▁Orílẹ̀	-3556
▁step	-3557
pher	-3558
▁reveal	-3559
ṣọ́nnárì	-3560
▁matters	-3561
▁tù	-3562
▁hat	-3563
▁proper	-3564
▁er	-3565
▁neigh	-3566
▁dẹ́	-3567
▁líle	-3568
▁moun	-3569
▁gidigidi	-3570
▁move	-3571
▁tara	-3572
dúró	-3573
▁judg	-3574
ẹ́ẹ̀tì	-3575
▁Per	-3576
▁born	-3577
▁Romans	-3578
gbáyé	-3579
▁loved	-3580
únibíni	-3581
máyà	-3582
▁16:	-3583
▁ìtu	-3584
▁bran	-3585
lómọ́nì	-3586
co	-3587
▁satis	-3588
▁sign	-3589
▁stop	-3590
▁dúpẹ́	-3591
▁fulfill	-3592
ices	-3593
▁mẹ́nu	-3594
▁Lọ	-3595
▁Sólómọ́nì	-3596
enn	-3597
dise	-3598
ustice	-3599
▁tirẹ̀	-3600
▁ìtumọ̀	-3601
▁exerc	-3602
▁Gbọ̀ngàn	-3603
▁pí	-3604
▁sheep	-3605
▁concer	-3606
▁Jẹ́n	-3607
▁21:	-3608
▁involved	-3609
▁mọyì	-3610
▁everlasting	-3611
rírì	-3612
▁10,	-3613
▁Bẹ́	-3614
▁Her	-3615
▁bur	-3616
▁def	-3617
▁six	-3618
ylon	-3619
▁àjà	-3620
▁Today	-3621
▁occas	-3622
rit	-3623
uted	-3624
▁cop	-3625
ṣìṣe	-3626
▁dev	-3627
▁purs	-3628
▁PA	-3629
▁ibù	-3630
--	-3631
▁Ná	-3632
▁Ẹ̀mí	-3633
ìníp	-3634
▁arran	-3635
ides	-3636
light	-3637
▁elder	-3638
hood	-3639
▁nec	-3640
▁local	-3641
▁NÍ	-3642
▁sàn	-3643
ọ́sìn	-3644
▁hundred	-3645
8,	-3646
gbìn	-3647
ys	-3648
▁Ger	-3649
ready	-3650
▁káàkiri	-3651
▁recogni	-3652
▁bọ́gbọ́n	-3653
▁ìbálò	-3654
OU	-3655
Then	-3656
lude	-3657
▁mọ́kàn	-3658
▁7,	-3659
pite	-3660
▁exc	-3661
▁mentioned	-3662
▁responsib	-3663
▁const	-3664
EN	-3665
ini	-3666
dísè	-3667
▁nísin	-3668
▁prison	-3669
▁event	-3670
▁Rather	-3671
▁origin	-3672
▁11,	-3673
▁àrí	-3674
▁bò	-3675
▁19:	-3676
▁leave	-3677
ìnípẹ̀kun	-3678
mies	-3679
▁Ìṣípayá	-3680
▁ọlá	-3681
▁glory	-3682
▁qualities	-3683
ross	-3684
tives	-3685
▁tóun	-3686
▁die	-3687
▁obe	-3688
▁sister	-3689
ina	-3690
▁once	-3691
▁Other	-3692
▁193	-3693
▁arri	-3694
▁kúkú	-3695
▁Afric	-3696
árádísè	-3697
▁àtijọ́	-3698
▁ǹ	-3699
rise	-3700
▁short	-3701
▁ọ̀gá	-3702
▁physical	-3703
pàdé	-3704
ríṣi	-3705
ource	-3706
▁olódodo	-3707
▁gir	-3708
▁ÌWÉ	-3709
▁Phili	-3710
▁Revelation	-3711
kàtí	-3712
▁pàṣẹ	-3713
bòójútó	-3714
▁gbẹ́kẹ̀	-3715
▁ìní	-3716
▁dang	-3717
újẹ́	-3718
ement	-3719
▁spiritually	-3720
▁20:	-3721
bíye	-3722
sẹ́fù	-3723
ja	-3724
úrù	-3725
▁evil	-3726
▁látọ̀dọ̀	-3727
àmú	-3728
▁fọkàn	-3729
▁Rẹ	-3730
▁rela	-3731
lagbà	-3732
▁Ọ̀dọ́	-3733
▁certainly	-3734
▁olùkọ́	-3735
▁báwọn	-3736
▁lákòókò	-3737
▁cal	-3738
▁jọ́sìn	-3739
▁míṣọ́nnárì	-3740
▁yọrí	-3741
▁shows	-3742
tìgbà	-3743
▁based	-3744
▁courage	-3745
gọ̀	-3746
▁ewu	-3747
▁commit	-3748
▁Jósẹ́fù	-3749
▁23.	-3750
▁carry	-3751
▁34	-3752
▁oppos	-3753
▁offering	-3754
▁understanding	-3755
▁tẹ́wọ́	-3756
mony	-3757
▁lélẹ̀	-3758
itive	-3759
stances	-3760
▁simply	-3761
ẹ̀mí	-3762
▁deli	-3763
▁ìsin	-3764
vation	-3765
▁af	-3766
▁pay	-3767
ṣiríṣi	-3768
▁ìrìn	-3769
▁already	-3770
▁onífẹ̀ẹ́	-3771
▁draw	-3772
▁Would	-3773
▁mountain	-3774
ective	-3775
▁sílò	-3776
leep	-3777
▁thir	-3778
▁resurrection	-3779
▁favor	-3780
▁priest	-3781
▁apostles	-3782
▁àgbàyanu	-3783
tan	-3784
▁fire	-3785
▁ìṣẹ́	-3786
▁sol	-3787
▁anything	-3788
ání	-3789
kòrò	-3790
▁sug	-3791
ceed	-3792
ier	-3793
▁ohùn	-3794
▁meeting	-3795
wered	-3796
▁bára	-3797
▁Mary	-3798
▁using	-3799
▁lost	-3800
▁Babylon	-3801
▁kẹ̀	-3802
▁Jew	-3803
ọ̀wọ́	-3804
▁Devil	-3805
▁provided	-3806
áná	-3807
▁16,	-3808
▁gíga	-3809
▁clear	-3810
▁truly	-3811
▁Jeremiah	-3812
▁concern	-3813
ǹda	-3814
▁Wá	-3815
What	-3816
▁kórìíra	-3817
▁remember	-3818
bítì	-3819
jíbítì	-3820
▁ìbálòpọ̀	-3821
▁12,	-3822
▁kept	-3823
Ọlọ́run	-3824
no	-3825
Nígbà	-3826
▁lásán	-3827
2,	-3828
lis	-3829
▁Bà	-3830
times	-3831
shi	-3832
▁Oló	-3833
▁Íjíbítì	-3834
▁Their	-3835
▁longer	-3836
GB	-3837
▁18:	-3838
▁mis	-3839
▁tiwa	-3840
▁gift	-3841
▁ṣègbọràn	-3842
▁àánú	-3843
▁lived	-3844
▁Èèyàn	-3845
▁During	-3846
yín	-3847
kọ̀wé	-3848
▁within	-3849
▁Ap	-3850
▁identi	-3851
▁Àní	-3852
▁gbò	-3853
atural	-3854
▁Ben	-3855
ulation	-3856
▁Ẹ́	-3857
▁five	-3858
▁Rere	-3859
▁honor	-3860
▁started	-3861
▁sís	-3862
▁péré	-3863
▁òṣìṣẹ́	-3864
▁fọ́	-3865
▁fully	-3866
most	-3867
▁educ	-3868
▁sacrific	-3869
▁ààbò	-3870
bes	-3871
▁22:	-3872
▁jìnnà	-3873
icial	-3874
jíǹde	-3875
▁divine	-3876
oming	-3877
▁slave	-3878
▁Brother	-3879
▁teacher	-3880
He	-3881
▁Ìfẹ́	-3882
sts	-3883
▁ṣàì	-3884
▁kiri	-3885
▁travel	-3886
▁problem	-3887
ọ́njú	-3888
gbàá	-3889
▁ìmú	-3890
▁dwell	-3891
▁ìyanu	-3892
▁demon	-3893
ùúrù	-3894
▁poor	-3895
ọmọ	-3896
▁mid	-3897
ṣò	-3898
iting	-3899
odò	-3900
▁olúkúlùkù	-3901
▁Éf	-3902
▁Ọdún	-3903
▁Hebrew	-3904
con	-3905
▁leg	-3906
▁Jesu	-3907
▁decla	-3908
▁effort	-3909
▁expect	-3910
rora	-3911
▁efforts	-3912
In	-3913
▁□	-3914
▁ìdà	-3915
▁York	-3916
▁àìnípẹ̀kun	-3917
ongo	-3918
▁bínú	-3919
▁inspired	-3920
▁tútù	-3921
▁circumstances	-3922
lera	-3923
▁ìṣè	-3924
med	-3925
▁198	-3926
▁che	-3927
note	-3928
perf	-3929
sọ́nà	-3930
▁ránṣẹ́	-3931
▁gbangba	-3932
▁Jí	-3933
▁worth	-3934
▁months	-3935
▁please	-3936
▁àgbàlagbà	-3937
▁aw	-3938
ẹ́sísì	-3939
▁government	-3940
▁ìlà	-3941
▁Jẹ́nẹ́sísì	-3942
5,	-3943
▁further	-3944
When	-3945
▁daughter	-3946
ried	-3947
▁Genes	-3948
▁ré	-3949
▁ìtọ́jú	-3950
▁possess	-3951
▁evidence	-3952
▁alábòójútó	-3953
ṣá	-3954
▁det	-3955
▁Inst	-3956
▁fetí	-3957
▁rather	-3958
▁Gí	-3959
▁ìh	-3960
pri	-3961
▁whose	-3962
▁ìtọ́ni	-3963
▁servant	-3964
▁tọ́ka	-3965
▁Níwọ̀n	-3966
▁reward	-3967
pẹ̀	-3968
▁remind	-3969
▁22.	-3970
▁Mic	-3971
rected	-3972
▁Genesis	-3973
▁Tra	-3974
▁ọtí	-3975
▁Fran	-3976
▁tend	-3977
LE	-3978
▁yòókù	-3979
▁persec	-3980
▁anim	-3981
▁alone	-3982
kọ̀ọ̀kan	-3983
▁speaking	-3984
▁wonderful	-3985
▁magaz	-3986
▁awa	-3987
▁flo	-3988
uge	-3989
▁tọkàn	-3990
óà	-3991
oko	-3992
▁seek	-3993
▁contain	-3994
▁addition	-3995
▁bọ	-3996
▁sil	-3997
▁above	-3998
▁seven	-3999
▁ìbínú	-4000
▁agbo	-4001
▁displ	-4002
▁heavens	-4003
dered	-4004
evers	-4005
iod	-4006
▁cur	-4007
▁commun	-4008
▁197	-4009
▁Bàbá	-4010
▁doubt	-4011
▁named	-4012
▁greater	-4013
ilies	-4014
shipp	-4015
▁ǹjẹ́	-4016
▁refer	-4017
▁abẹ́	-4018
▁●	-4019
▁Ro	-4020
▁Samuel	-4021
▁ìwádìí	-4022
ied	-4023
▁Jon	-4024
▁Kan	-4025
▁overse	-4026
▁prayers	-4027
▁girl	-4028
▁showed	-4029
▁Jù	-4030
▁rọ́	-4031
▁Mark	-4032
▁rule	-4033
▁repres	-4034
▁assign	-4035
hers	-4036
▁táá	-4037
▁stat	-4038
▁focus	-4039
mé	-4040
óòpù	-4041
▁branch	-4042
▁else	-4043
▁authority	-4044
▁voice	-4045
▁wúlò	-4046
▁àyíká	-4047
▁Párádísè	-4048
▁òde	-4049
▁direct	-4050
▁13,	-4051
▁dem	-4052
AR	-4053
▁belief	-4054
gbe	-4055
hàn	-4056
▁estab	-4057
nù	-4058
tú	-4059
▁nù	-4060
▁sùúrù	-4061
▁Jac	-4062
ental	-4063
▁hearts	-4064
AT	-4065
▁Scriptural	-4066
▁ẹrù	-4067
▁older	-4068
▁onímọ̀	-4069
▁Lóòótọ́	-4070
tọkàn	-4071
my	-4072
cep	-4073
▁week	-4074
tọ̀hún	-4075
IS	-4076
rup	-4077
ending	-4078
une	-4079
▁avail	-4080
▁Des	-4081
▁sọ́kàn	-4082
▁standards	-4083
gr	-4084
tire	-4085
▁Cat	-4086
holic	-4087
▁yòówù	-4088
▁],	-4089
ising	-4090
áàárín	-4091
▁obedi	-4092
▁States	-4093
▁Did	-4094
míràn	-4095
▁ze	-4096
▁occur	-4097
▁doct	-4098
▁níwọ̀n	-4099
side	-4100
▁Mess	-4101
▁everything	-4102
jah	-4103
▁kán	-4104
▁Society	-4105
▁àkọsílẹ̀	-4106
▁ìwò	-4107
▁happened	-4108
▁wákàtí	-4109
▁judgment	-4110
ànújẹ́	-4111
▁Roman	-4112
▁àlàyé	-4113
▁history	-4114
▁òǹ	-4115
▁síra	-4116
5:	-4117
▁inj	-4118
oly	-4119
▁mún	-4120
itation	-4121
fíìsì	-4122
▁changed	-4123
▁24.	-4124
▁Life	-4125
▁wọ́	-4126
▁ńkọ́	-4127
▁necess	-4128
▁ọ̀pọ̀lọpọ̀	-4129
semb	-4130
▁promise	-4131
▁congregations	-4132
▁Nóà	-4133
▁ṣọ̀	-4134
▁kojú	-4135
▁effect	-4136
▁perhaps	-4137
▁ọrẹ	-4138
org	-4139
zing	-4140
▁Indeed	-4141
wide	-4142
▁period	-4143
ches	-4144
▁Sámú	-4145
▁Ìṣọ́	-4146
▁etí	-4147
jé	-4148
▁Jap	-4149
▁forth	-4150
▁ìmọ́lẹ̀	-4151
▁Bra	-4152
urate	-4153
▁imperf	-4154
ager	-4155
▁gbára	-4156
ọdún	-4157
▁èlò	-4158
▁coven	-4159
▁ten	-4160
▁Noah	-4161
▁stated	-4162
▁decision	-4163
for	-4164
▁títọ́	-4165
▁Pha	-4166
▁ago	-4167
▁vol	-4168
èwé	-4169
eric	-4170
▁rà	-4171
▁Ibi	-4172
▁job	-4173
▁Japan	-4174
▁kìlọ̀	-4175
▁imitate	-4176
jálù	-4177
▁belong	-4178
àyè	-4179
rews	-4180
tumọ̀	-4181
tism	-4182
▁emp	-4183
▁rejo	-4184
▁walk	-4185
6,	-4186
▁zeal	-4187
▁Jacob	-4188
aged	-4189
▁ren	-4190
There	-4191
▁Ọjọ́	-4192
▁ìrònú	-4193
▁Àpẹẹrẹ	-4194
▁blessing	-4195
▁got	-4196
èsáyà	-4197
▁Still	-4198
▁opportunity	-4199
▁door	-4200
▁impro	-4201
pà	-4202
▁ph	-4203
▁confidence	-4204
used	-4205
▁Àpótí	-4206
▁sl	-4207
kàwé	-4208
▁ko	-4209
▁gbọ	-4210
▁held	-4211
▁tàn	-4212
▁plan	-4213
▁fight	-4214
▁powerful	-4215
bra	-4216
ìírí	-4217
ultiv	-4218
▁Lára	-4219
▁tw	-4220
ously	-4221
▁watch	-4222
ared	-4223
arious	-4224
▁value	-4225
▁inúnibíni	-4226
▁Ge	-4227
▁issue	-4228
▁múlẹ̀	-4229
▁Òótọ́	-4230
ájúdájú	-4231
▁led	-4232
▁níyànjú	-4233
▁lédè	-4234
▁quick	-4235
▁Hebrews	-4236
▁families	-4237
▁Never	-4238
▁church	-4239
▁perform	-4240
▁promises	-4241
▁ṣègbéyàwó	-4242
▁BÍ	-4243
▁Nǹkan	-4244
▁start	-4245
▁bọ̀wọ̀	-4246
▁accompl	-4247
▁display	-4248
▁17,	-4249
▁fíf	-4250
▁hur	-4251
▁Jewish	-4252
7,	-4253
▁covenant	-4254
▁examples	-4255
fu	-4256
oud	-4257
▁ty	-4258
lónì	-4259
▁join	-4260
▁Ọ̀kan	-4261
eds	-4262
know	-4263
▁eng	-4264
uce	-4265
▁Mú	-4266
▁ète	-4267
▁served	-4268
▁side	-4269
▁mílíọ̀nù	-4270
▁prophecy	-4271
idered	-4272
▁everyone	-4273
aith	-4274
▁regarding	-4275
aries	-4276
▁olùṣọ́	-4277
Je	-4278
▁nítò	-4279
▁tẹli	-4280
irst	-4281
kùṣù	-4282
oted	-4283
phes	-4284
ential	-4285
▁Mèsáyà	-4286
▁indeed	-4287
▁pioneer	-4288
ash	-4289
ilities	-4290
▁Rẹ̀	-4291
▁area	-4292
lóhùn	-4293
òrùn	-4294
urity	-4295
▁thoughts	-4296
▁explained	-4297
▁sú	-4298
▁demonstra	-4299
▁19,	-4300
▁196	-4301
▁pọn	-4302
▁lọ́pọ̀	-4303
▁Ha	-4304
▁advice	-4305
▁activities	-4306
,...	-4307
▁organization	-4308
fú	-4309
ific	-4310
▁dise	-4311
▁jàǹfààní	-4312
ives	-4313
▁sick	-4314
▁continued	-4315
▁lọ́r	-4316
▁inher	-4317
▁appointed	-4318
▁Na	-4319
bó	-4320
rus	-4321
UN	-4322
▁claim	-4323
▁percent	-4324
▁OJÚ	-4325
▁Instead	-4326
▁blessings	-4327
▁tọkàntọkàn	-4328
ones	-4329
fun	-4330
▁rá	-4331
▁cut	-4332
▁guid	-4333
▁Ṣà	-4334
▁countries	-4335
▁helps	-4336
cl	-4337
▁Ìwà	-4338
tually	-4339
▁shepher	-4340
áyà	-4341
▁birth	-4342
▁privilege	-4343
▁lójoojúmọ́	-4344
ann	-4345
lied	-4346
▁considered	-4347
▁partic	-4348
▁published	-4349
▁lòdì	-4350
▁sins	-4351
Jehovah	-4352
▁Philipp	-4353
▁lack	-4354
lier	-4355
▁Lọ́nà	-4356
▁jáwọ́	-4357
▁ìbẹ̀rù	-4358
▁Jákọ́bù	-4359
Let	-4360
▁anx	-4361
bílónì	-4362
▁maj	-4363
▁rich	-4364
▁pages	-4365
ril	-4366
▁Cent	-4367
▁Tower	-4368
▁available	-4369
ẹ́kọ̀ọ́	-4370
▁angels	-4371
▁Pẹ̀lú	-4372
▁assist	-4373
▁Jé	-4374
lejò	-4375
▁preach	-4376
▁practic	-4377
▁ọ́fíìsì	-4378
▁answered	-4379
▁Bar	-4380
▁májẹ̀mú	-4381
▁decisions	-4382
▁psalm	-4383
fidi	-4384
▁firm	-4385
▁Spirit	-4386
▁anger	-4387
gan	-4388
sequ	-4389
▁àbí	-4390
▁offe	-4391
▁students	-4392
▁odò	-4393
▁sísọ	-4394
▁Fe	-4395
▁Èlí	-4396
anì	-4397
gbẹ́ni	-4398
yípadà	-4399
▁turned	-4400
ken	-4401
agine	-4402
▁18,	-4403
▁Eve	-4404
gu	-4405
▁Dání	-4406
ingly	-4407
▁Dafidi	-4408
▁àjíǹde	-4409
tánẹ́ẹ̀tì	-4410
▁dọ́	-4411
▁sever	-4412
▁occasion	-4413
ech	-4414
▁Hence	-4415
▁òmìnira	-4416
▁Jú	-4417
dẹ́	-4418
▁irin	-4419
▁òkúta	-4420
▁Lọ́dún	-4421
▁events	-4422
lówó	-4423
▁pop	-4424
Jèhófà	-4425
▁Footnote	-4426
earch	-4427
verse	-4428
▁offered	-4429
▁ìrẹ̀lẹ̀	-4430
ched	-4431
▁jíjẹ́	-4432
ped	-4433
▁Ìdá	-4434
▁instruc	-4435
▁dri	-4436
▁inhab	-4437
▁particular	-4438
akò	-4439
▁various	-4440
ically	-4441
▁ìṣàkóso	-4442
▁ṣàyẹ̀wò	-4443
▁60	-4444
mọye	-4445
▁priests	-4446
▁Dáníẹ́lì	-4447
agun	-4448
head	-4449
istic	-4450
▁Stud	-4451
▁role	-4452
▁instance	-4453
▁okun	-4454
bly	-4455
dánù	-4456
gbèé	-4457
▁tóbi	-4458
▁Ephes	-4459
▁enough	-4460
▁natural	-4461
jèjì	-4462
úúsù	-4463
ọ̀tọ̀	-4464
▁kings	-4465
▁síyẹn	-4466
▁entire	-4467
▁ẹ̀wọ̀n	-4468
▁ability	-4469
▁Jeremáyà	-4470
▁places	-4471
▁èé	-4472
▁Aug	-4473
gí	-4474
▁itself	-4475
▁Éfà	-4476
▁crow	-4477
▁pàtó	-4478
cienti	-4479
san	-4480
▁25.	-4481
▁poin	-4482
▁ìrírí	-4483
▁danger	-4484
▁ìbànújẹ́	-4485
ori	-4486
▁yẹra	-4487
▁Màríà	-4488
▁neither	-4489
▁believers	-4490
▁prove	-4491
apá	-4492
▁pẹ̀	-4493
ident	-4494
▁Jámánì	-4495
▁Catholic	-4496
ows	-4497
grity	-4498
▁ṣèrànwọ́	-4499
▁onítọ̀hún	-4500
▁nísinsìnyí	-4501
ele	-4502
▁rele	-4503
▁text	-4504
▁vital	-4505
▁Éfésù	-4506
▁ìlera	-4507
▁Americ	-4508
▁English	-4509
▁former	-4510
▁ìbílẹ̀	-4511
▁violence	-4512
▁represent	-4513
ral	-4514
reedom	-4515
▁Bethel	-4516
▁ìgbàanì	-4517
This	-4518
▁tree	-4519
▁stra	-4520
▁answers	-4521
▁Sọ	-4522
emies	-4523
▁sleep	-4524
▁explains	-4525
▁worshipp	-4526
▁moral	-4527
▁myself	-4528
▁weak	-4529
▁happen	-4530
▁mọ́lẹ̀	-4531
▁Bábílónì	-4532
▁determined	-4533
IL	-4534
búrò	-4535
hind	-4536
▁deliver	-4537
▁adúró	-4538
▁Aar	-4539
▁gold	-4540
urance	-4541
▁àṣìṣe	-4542
▁àdánwò	-4543
▁alágbára	-4544
▁Íńtánẹ́ẹ̀tì	-4545
▁Cle	-4546
▁ṣáá	-4547
líìkì	-4548
▁True	-4549
ilead	-4550
▁dẹni	-4551
▁dókítà	-4552
▁office	-4553
▁direction	-4554
▁50	-4555
▁dè	-4556
ists	-4557
úrẹ́	-4558
▁delight	-4559
▁morning	-4560
▁several	-4561
▁pá	-4562
▁accurate	-4563
▁progra	-4564
oc	-4565
ìwà	-4566
úrà	-4567
▁ìjì	-4568
▁Juda	-4569
▁níṣìírí	-4570
tes	-4571
▁sára	-4572
▁lands	-4573
▁couple	-4574
▁emotion	-4575
▁working	-4576
▁fig	-4577
▁Sámúẹ́lì	-4578
like	-4579
athan	-4580
▁màmá	-4581
▁First	-4582
▁cultiv	-4583
▁raised	-4584
▁arrange	-4585
▁accepted	-4586
▁yin	-4587
▁Josh	-4588
dínlọ́	-4589
▁month	-4590
▁praise	-4591
▁household	-4592
▁bat	-4593
▁Sept	-4594
▁clot	-4595
priate	-4596
▁àpótí	-4597
▁pan	-4598
▁kill	-4599
▁ìgbàlà	-4600
bal	-4601
men	-4602
átó	-4603
▁àjálù	-4604
▁influence	-4605
"""	-4606
que	-4607
▁report	-4608
▁easy	-4609
▁àsọyé	-4610
▁Gilead	-4611
cip	-4612
▁equ	-4613
▁múnú	-4614
▁sẹ́ni	-4615
▁ọ̀sẹ̀	-4616
ÀN	-4617
▁ìkẹyìn	-4618
aches	-4619
ẹ́ẹ̀ẹ́	-4620
▁mirac	-4621
▁Àjọ	-4622
▁August	-4623
▁cities	-4624
▁positive	-4625
GE	-4626
nific	-4627
▁wants	-4628
▁sexual	-4629
▁enemies	-4630
▁láìsí	-4631
gbẹ	-4632
van	-4633
▁Ìp	-4634
▁pict	-4635
▁takes	-4636
▁returned	-4637
▁und	-4638
orial	-4639
tẹ́lì	-4640
▁wild	-4641
▁èròjà	-4642
▁million	-4643
▁ìpọ́njú	-4644
▁throughout	-4645
▁Ju	-4646
▁Have	-4647
▁source	-4648
▁teachings	-4649
▁described	-4650
ene	-4651
utes	-4652
▁fẹ̀	-4653
▁Dípò	-4654
▁kópa	-4655
8.	-4656
▁July	-4657
▁surp	-4658
▁ìbámu	-4659
▁Sọ́ọ̀lù	-4660
▁Bl	-4661
▁mouth	-4662
▁recorded	-4663
ley	-4664
▁letter	-4665
cha	-4666
yan	-4667
of	-4668
▁Òkun	-4669
▁OR	-4670
▁neighbor	-4671
▁oko	-4672
▁knows	-4673
▁sound	-4674
▁discipl	-4675
Kò	-4676
▁èrè	-4677
▁Bẹ́tẹ́lì	-4678
▁worldwide	-4679
▁conscience	-4680
pọ	-4681
▁aláìní	-4682
▁Most	-4683
▁activity	-4684
▁gún	-4685
▁leaders	-4686
ency	-4687
▁Bib	-4688
▁sọ̀	-4689
▁tèmi	-4690
▁ọ̀la	-4691
▁ìtẹ̀jáde	-4692
▁tu	-4693
▁Box	-4694
▁Yẹ	-4695
▁Gbé	-4696
mọ̀wé	-4697
▁harm	-4698
Ìwọ	-4699
▁Ìhìn	-4700
▁major	-4701
▁reach	-4702
ination	-4703
af	-4704
▁cap	-4705
ròyìn	-4706
▁nítòsí	-4707
átólíìkì	-4708
▁September	-4709
eṣẹ́	-4710
pter	-4711
My	-4712
▁ah	-4713
ression	-4714
esty	-4715
gbodò	-4716
▁modern	-4717
▁Kátólíìkì	-4718
▁ìṣekúṣe	-4719
díà	-4720
▁angel	-4721
more	-4722
▁progress	-4723
▁convention	-4724
ex	-4725
ergy	-4726
uine	-4727
▁Just	-4728
▁Máà	-4729
kéde	-4730
pọlọ	-4731
▁ban	-4732
▁yìn	-4733
▁earlier	-4734
▁Car	-4735
▁feet	-4736
▁Fílí	-4737
▁experienced	-4738
por	-4739
▁kìkì	-4740
▁mere	-4741
lus	-4742
▁Ogun	-4743
▁created	-4744
ternational	-4745
ream	-4746
▁vic	-4747
▁clearly	-4748
ansom	-4749
▁speech	-4750
eni	-4751
▁Rárá	-4752
▁suffer	-4753
▁protect	-4754
▁,	-4755
tal	-4756
zil	-4757
arun	-4758
ding	-4759
▁mist	-4760
▁break	-4761
▁pàdánù	-4762
▁mẹ́ẹ̀ẹ́	-4763
▁promised	-4764
ṣọ̀n	-4765
▁Eur	-4766
▁Nor	-4767
▁mercy	-4768
▁Moreover	-4769
▁commanded	-4770
▁integrity	-4771
▁àtún	-4772
▁write	-4773
lies	-4774
▁Rem	-4775
▁òrìṣà	-4776
▁appreciation	-4777
▁ọ̀tọ̀ọ̀tọ̀	-4778
iction	-4779
▁Africa	-4780
▁reasons	-4781
òkè	-4782
kànṣe	-4783
▁behind	-4784
▁Gá	-4785
▁caused	-4786
▁àbájáde	-4787
▁precious	-4788
▁Bíi	-4789
▁daily	-4790
erved	-4791
fíríkà	-4792
▁April	-4793
▁erékùṣù	-4794
▁ẹ̀gbọ́n	-4795
▁ri	-4796
told	-4797
▁least	-4798
▁sea	-4799
ories	-4800
tímọ́	-4801
▁ground	-4802
▁ṣàpèjúwe	-4803
ends	-4804
▁àrà	-4805
▁mọrírì	-4806
▁proved	-4807
table	-4808
▁ṣẹ́gun	-4809
▁WH	-4810
ẹsẹ̀	-4811
▁lílo	-4812
vision	-4813
▁Joshua	-4814
▁pat	-4815
fiyèsí	-4816
▁bread	-4817
fá	-4818
hù	-4819
kán	-4820
ably	-4821
▁helping	-4822
▁actually	-4823
▁Yóò	-4824
▁mus	-4825
▁lẹ́nì	-4826
▁Áfíríkà	-4827
tinú	-4828
▁affect	-4829
'"	-4830
arch	-4831
▁22,	-4832
úróòpù	-4833
▁Ìgbìmọ̀	-4834
kókò	-4835
▁bear	-4836
▁lóhùn	-4837
▁Yúróòpù	-4838
ọni	-4839
▁Res	-4840
▁ojúṣe	-4841
▁learning	-4842
▁onígbàgbọ́	-4843
4.	-4844
pẹtẹ	-4845
antly	-4846
▁Holy	-4847
▁dark	-4848
ditions	-4849
▁convers	-4850
gbòkè	-4851
▁Cont	-4852
▁training	-4853
▁oríṣiríṣi	-4854
▁ìm	-4855
▁godly	-4856
▁psalmist	-4857
gbòkègbodò	-4858
ays	-4859
óònù	-4860
▁obey	-4861
▁Europe	-4862
▁killed	-4863
▁ìràpadà	-4864
▁practical	-4865
▁ìtọ́sọ́nà	-4866
versity	-4867
▁–	-4868
time	-4869
action	-4870
▁ìjí	-4871
ai	-4872
But	-4873
ẹmu	-4874
ored	-4875
vious	-4876
▁pros	-4877
▁àpèjúwe	-4878
ink	-4879
icated	-4880
AL	-4881
▁ibì	-4882
▁wind	-4883
▁immor	-4884
▁address	-4885
▁position	-4886
fer	-4887
▁Aw	-4888
cies	-4889
iger	-4890
yond	-4891
▁gri	-4892
by	-4893
auti	-4894
▁books	-4895
▁force	-4896
God	-4897
▁).	-4898
▁Pol	-4899
▁ransom	-4900
Ẹni	-4901
ED	-4902
▁room	-4903
▁Great	-4904
▁choose	-4905
▁actions	-4906
ìnì	-4907
▁ọ́n	-4908
▁half	-4909
▁poli	-4910
▁lọ́mọ	-4911
▁single	-4912
▁threat	-4913
lúù	-4914
▁empl	-4915
▁àtàtà	-4916
▁chapter	-4917
amb	-4918
uit	-4919
▁láyè	-4920
▁tried	-4921
▁Phil	-4922
▁mate	-4923
▁méjìlá	-4924
ears	-4925
▁War	-4926
▁millions	-4927
▁Im	-4928
▁ọ̀d	-4929
papọ̀	-4930
àníyàn	-4931
▁baptism	-4932
ief	-4933
ubú	-4934
▁36	-4935
ánu	-4936
▁town	-4937
▁©	-4938
▁salvation	-4939
▁appropriate	-4940
láàyè	-4941
▁exce	-4942
vereign	-4943
▁decided	-4944
▁subject	-4945
yri	-4946
Ohun	-4947
▁blessed	-4948
ray	-4949
▁fọ	-4950
just	-4951
▁City	-4952
▁compass	-4953
athe	-4954
▁dara	-4955
▁ẹ̀dà	-4956
▁hours	-4957
▁ìfara	-4958
▁ẹ̀dùn	-4959
mọ́tímọ́	-4960
yún	-4961
▁Hel	-4962
▁shown	-4963
▁Russ	-4964
▁South	-4965
▁freedom	-4966
▁reflect	-4967
▁regularly	-4968
ǹbá	-4969
▁satisf	-4970
▁magazine	-4971
ler	-4972
▁ère	-4973
ustom	-4974
▁àbúrò	-4975
▁responsibility	-4976
▁sold	-4977
▁immedi	-4978
▁jọ̀wọ́	-4979
▁sòótọ́	-4980
ènì	-4981
▁ewé	-4982
▁Brazil	-4983
▁jẹ́rìí	-4984
▁expl	-4985
▁wọnú	-4986
▁Child	-4987
▁require	-4988
▁ìbẹ̀rẹ̀	-4989
ster	-4990
▁Mọ́	-4991
jects	-4992
▁ìgboyà	-4993
▁Èé	-4994
wẹ̀sì	-4995
▁ìyípadà	-4996
▁sword	-4997
sọ̀	-4998
▁low	-4999
▁ìbà	-5000
▁char	-5001
▁action	-5002
▁gé	-5003
▁ìgb	-5004
▁road	-5005
▁spoken	-5006
▁guidance	-5007
gbẹẹ	-5008
▁laws	-5009
▁Niger	-5010
▁ìbáwí	-5011
▁sugges	-5012
▁harmony	-5013
fín	-5014
▁Dece	-5015
OV	-5016
▁Us	-5017
pped	-5018
▁Mose	-5019
▁Ìrán	-5020
▁yourselves	-5021
▁wid	-5022
▁fàyè	-5023
▁ọlọ́pàá	-5024
▁languages	-5025
▁Bro	-5026
▁kìló	-5027
▁seems	-5028
▁tẹ́tí	-5029
lélógún	-5030
▁ìgbòkègbodò	-5031
oh	-5032
For	-5033
▁El	-5034
▁Later	-5035
▁drink	-5036
▁gbólóhùn	-5037
▁tímọ́tímọ́	-5038
Gb	-5039
▁results	-5040
BÉ	-5041
Nítorí	-5042
▁rẹpẹtẹ	-5043
▁provides	-5044
ÚN	-5045
ana	-5046
▁31.	-5047
▁láàrín	-5048
ùnú	-5049
▁Oc	-5050
▁rese	-5051
▁tong	-5052
▁ìrora	-5053
▁minister	-5054
ṣú	-5055
aràn	-5056
▁safe	-5057
yebíye	-5058
▁29.	-5059
▁ris	-5060
▁Dájúdájú	-5061
dọ	-5062
▁23:	-5063
▁Ask	-5064
▁rúbọ	-5065
▁ìsapá	-5066
▁ìtùnú	-5067
▁kòkòrò	-5068
LÌ	-5069
▁20,	-5070
▁Máàkù	-5071
▁foretold	-5072
ung	-5073
urb	-5074
▁jẹun	-5075
▁àìní	-5076
▁nídìí	-5077
▁thousands	-5078
bẹ	-5079
láàsì	-5080
▁changes	-5081
3:	-5082
9.	-5083
kùnkùn	-5084
▁fìfẹ́	-5085
▁Another	-5086
▁28.	-5087
▁jour	-5088
▁Ìbéèrè	-5089
▁pìwà	-5090
bell	-5091
▁ẹlẹ	-5092
ounts	-5093
▁attack	-5094
èké	-5095
▁lot	-5096
▁spread	-5097
▁whatever	-5098
▁drug	-5099
▁justice	-5100
▁exercise	-5101
9:	-5102
▁ṣò	-5103
▁bal	-5104
▁yọ̀ǹda	-5105
ǹsì	-5106
form	-5107
▁fín	-5108
▁ọgbọ̀n	-5109
▁earthly	-5110
▁include	-5111
▁December	-5112
▁pressure	-5113
kìlọ̀	-5114
▁sight	-5115
▁ojúlówó	-5116
▁assignment	-5117
lyn	-5118
ste	-5119
ansé	-5120
▁Ass	-5121
▁Wò	-5122
▁ẹyẹ	-5123
▁clos	-5124
▁àìmọye	-5125
▁encouraged	-5126
sen	-5127
lean	-5128
▁òpó	-5129
▁repent	-5130
▁Faransé	-5131
▁òru	-5132
gbẹ̀ẹ́	-5133
theless	-5134
▁contrib	-5135
▁appreciate	-5136
áni	-5137
▁elé	-5138
▁beauti	-5139
▁aládùúgbò	-5140
fọ̀	-5141
tar	-5142
mítà	-5143
lélọ́	-5144
▁lépa	-5145
yẹyẹ	-5146
▁pleas	-5147
▁challenge	-5148
alá	-5149
▁adúróṣinṣin	-5150
jọ̀	-5151
▁lif	-5152
▁ẹ̀tọ́	-5153
▁ìparun	-5154
▁practice	-5155
▁IN	-5156
òrò	-5157
▁Gbà	-5158
▁idà	-5159
▁gbáà	-5160
yẹ́ǹsì	-5161
▁Elijah	-5162
▁destruction	-5163
▁grad	-5164
▁gather	-5165
▁inherit	-5166
▁òg	-5167
▁lea	-5168
dọọdún	-5169
▁sóhun	-5170
▁Ag	-5171
▁dam	-5172
▁glo	-5173
sáàmù	-5174
▁ọlọ́r	-5175
biti	-5176
cing	-5177
▁June	-5178
▁Others	-5179
▁alákòókò	-5180
▁creation	-5181
gbẹẹgbẹ̀rún	-5182
só	-5183
cer	-5184
▁Àti	-5185
▁gòkè	-5186
▁wúrà	-5187
▁ready	-5188
▁lọ̀rọ̀	-5189
▁invited	-5190
IT	-5191
▁Sw	-5192
▁acqu	-5193
▁abund	-5194
▁ìṣọ̀kan	-5195
ékè	-5196
▁Har	-5197
▁Fílípì	-5198
▁prayed	-5199
▁bì	-5200
▁wat	-5201
▁àyè	-5202
▁Also	-5203
▁Lórí	-5204
▁goal	-5205
▁yálà	-5206
▁eight	-5207
▁volun	-5208
▁beyond	-5209
▁compassion	-5210
cap	-5211
alls	-5212
▁hosp	-5213
▁wulẹ̀	-5214
▁Before	-5215
▁òjò	-5216
▁sójú	-5217
▁youth	-5218
adi	-5219
▁ṣi	-5220
▁25:	-5221
▁Awake	-5222
▁ọpọlọ	-5223
▁bẹ́	-5224
▁ọ̀daràn	-5225
▁destroyed	-5226
Be	-5227
▁hab	-5228
ignific	-5229
▁ìdánil	-5230
ico	-5231
▁100	-5232
▁pápá	-5233
▁àkànṣe	-5234
ṣọ	-5235
ada	-5236
▁Ale	-5237
▁Para	-5238
▁disp	-5239
zer	-5240
▁béèyàn	-5241
▁rìnrìn	-5242
▁worked	-5243
▁Was	-5244
ament	-5245
▁Jeho	-5246
ṣeyọrí	-5247
▁convin	-5248
bert	-5249
vest	-5250
dájọ́	-5251
▁fìdí	-5252
▁followed	-5253
▁ẹ̀rù	-5254
▁motiv	-5255
▁third	-5256
▁acts	-5257
▁building	-5258
▁ìtì	-5259
▁heal	-5260
▁trials	-5261
umb	-5262
Gbogbo	-5263
▁Obìnrin	-5264
kára	-5265
tics	-5266
▁vir	-5267
▁ìrìbọmi	-5268
▁olóró	-5269
▁ìgbẹ́	-5270
▁beginning	-5271
▁homes	-5272
▁ìtara	-5273
▁desires	-5274
▁benefits	-5275
▁màlúù	-5276
▁knowing	-5277
▁win	-5278
lands	-5279
▁filled	-5280
▁sípò	-5281
▁Lọ́jọ́	-5282
▁compan	-5283
▁ìṣẹ̀dá	-5284
▁education	-5285
tisí	-5286
▁ọlọ́run	-5287
ming	-5288
▁kẹ̀kẹ́	-5289
reme	-5290
tober	-5291
▁built	-5292
▁Àgbáyé	-5293
▁ìdààmú	-5294
▁allowed	-5295
▁literature	-5296
zz	-5297
ets	-5298
rap	-5299
▁ṣeré	-5300
▁looking	-5301
▁lẹ́ẹ̀kan	-5302
▁Jerusalẹmu	-5303
▁Sm	-5304
oint	-5305
▁state	-5306
▁October	-5307
▁friendship	-5308
uter	-5309
▁37:	-5310
▁publis	-5311
▁quickly	-5312
▁showing	-5313
▁studying	-5314
▁Fin	-5315
▁oor	-5316
▁lèyí	-5317
▁Young	-5318
▁concerning	-5319
▁expression	-5320
▁lókè	-5321
▁Ìgbé	-5322
▁grand	-5323
▁parti	-5324
▁specific	-5325
▁Reg	-5326
▁jìyà	-5327
▁pẹpẹ	-5328
▁gbọdọ̀	-5329
▁ẹlẹgbẹ́	-5330
▁interested	-5331
▁becoming	-5332
▁TÓ	-5333
rough	-5334
darí	-5335
view	-5336
▁test	-5337
▁miles	-5338
▁ìdúró	-5339
▁ìyàtọ̀	-5340
▁condition	-5341
irs	-5342
sun	-5343
▁mul	-5344
▁Júdà	-5345
▁member	-5346
jó	-5347
vior	-5348
▁manif	-5349
mer	-5350
▁Àì	-5351
▁192	-5352
▁dání	-5353
ékèèké	-5354
▁Gover	-5355
▁interests	-5356
wor	-5357
▁tal	-5358
▁endure	-5359
▁sọ́tọ̀	-5360
uni	-5361
ills	-5362
▁ṣubú	-5363
ádọ́rin	-5364
▁àádọ́ta	-5365
eth	-5366
fts	-5367
ason	-5368
▁ìhà	-5369
pẹẹrẹ	-5370
urs	-5371
rugg	-5372
▁tells	-5373
▁disapp	-5374
▁ìwàláàyè	-5375
▁centuries	-5376
▁discipline	-5377
sé	-5378
úlé	-5379
▁mem	-5380
▁appe	-5381
▁arìn	-5382
▁secret	-5383
▁seeking	-5384
▁Rán	-5385
▁Tiwa	-5386
jìnlẹ̀	-5387
▁ṣọ́ra	-5388
▁kéékèèké	-5389
How	-5390
▁ji	-5391
ront	-5392
▁alive	-5393
▁Though	-5394
▁getting	-5395
▁sáyẹ́ǹsì	-5396
▁Love	-5397
▁àjèjì	-5398
▁outside	-5399
mbol	-5400
▁Gosp	-5401
▁youths	-5402
▁Messiah	-5403
▁ìgbésẹ̀	-5404
▁Pl	-5405
▁Lẹ́	-5406
▁Náà	-5407
▁Tuntun	-5408
▁Nevertheless	-5409
rod	-5410
ton	-5411
▁trib	-5412
▁effective	-5413
úmọ̀	-5414
▁env	-5415
dógún	-5416
▁line	-5417
8:	-5418
▁].	-5419
▁steps	-5420
▁iléeṣẹ́	-5421
▁jo	-5422
▁Ọ́	-5423
▁Ọkàn	-5424
▁crowd	-5425
▁mẹ́jọ	-5426
▁disease	-5427
▁Ṣí	-5428
▁Min	-5429
▁program	-5430
▁akọ	-5431
▁den	-5432
▁mom	-5433
▁tes	-5434
▁yàrá	-5435
▁aláìpé	-5436
▁assemb	-5437
▁necessary	-5438
▁Vi	-5439
▁About	-5440
▁kìlómítà	-5441
▁presence	-5442
▁ign	-5443
▁added	-5444
▁cover	-5445
▁Sara	-5446
▁foot	-5447
ration	-5448
▁Béèrè	-5449
▁dídùn	-5450
▁wáìnì	-5451
Ṣé	-5452
▁u	-5453
▁eye	-5454
▁vill	-5455
▁ayẹyẹ	-5456
▁ọ̀tún	-5457
▁foreign	-5458
▁sometimes	-5459
▁surely	-5460
▁revealed	-5461
▁Ma	-5462
ogun	-5463
▁Under	-5464
▁reports	-5465
▁areas	-5466
▁rebell	-5467
born	-5468
▁State	-5469
▁wives	-5470
▁sacrifices	-5471
níkà	-5472
▁passed	-5473
▁rulers	-5474
yc	-5475
ane	-5476
▁custom	-5477
▁dẹ́ṣẹ̀	-5478
▁sincere	-5479
▁missionary	-5480
▁Èrò	-5481
▁personality	-5482
!’	-5483
▁kéde	-5484
▁fọ̀rọ̀	-5485
hò	-5486
jádò	-5487
▁pot	-5488
▁inde	-5489
▁detail	-5490
▁ut	-5491
pìtàn	-5492
▁cult	-5493
▁ọlọ́gbọ́n	-5494
ica	-5495
▁Mem	-5496
▁brings	-5497
▁beliefs	-5498
kèjádò	-5499
▁Brook	-5500
▁either	-5501
ómì	-5502
▁symbol	-5503
▁enjoyed	-5504
▁profess	-5505
▁na	-5506
ọ́ọ̀sì	-5507
▁Àǹfààní	-5508
mẹ́	-5509
▁realize	-5510
▁TO	-5511
▁gbọn	-5512
▁tempt	-5513
▁separa	-5514
▁consequ	-5515
▁imperfect	-5516
ades	-5517
▁Láàárín	-5518
▁quality	-5519
▁rejoice	-5520
▁Ọkùnrin	-5521
▁lay	-5522
▁guard	-5523
▁strugg	-5524
▁fathers	-5525
▁greatest	-5526
▁ṣáà	-5527
jàánu	-5528
▁Janu	-5529
▁teen	-5530
bẹ̀rẹ̀	-5531
▁spent	-5532
▁Perhaps	-5533
▁Pà	-5534
oped	-5535
▁kùn	-5536
kànnì	-5537
▁goals	-5538
▁genuine	-5539
▁paradise	-5540
▁prepared	-5541
▁TÍ	-5542
▁pun	-5543
▁èṣù	-5544
▁òṣù	-5545
▁níní	-5546
▁wine	-5547
▁Ìṣòro	-5548
▁usually	-5549
▁accomplish	-5550
rs	-5551
has	-5552
▁Ńlá	-5553
▁basis	-5554
▁jíǹde	-5555
▁alààyè	-5556
▁search	-5557
▁January	-5558
▁Eji	-5559
▁òdì	-5560
oke	-5561
▁Rep	-5562
▁acknow	-5563
▁24,	-5564
▁Rọ́	-5565
▁Nehe	-5566
▁irọ́	-5567
▁Ejibiti	-5568
▁prevent	-5569
oss	-5570
tered	-5571
So	-5572
ney	-5573
kọjá	-5574
▁employ	-5575
▁completely	-5576
many	-5577
▁resol	-5578
5.	-5579
▁exec	-5580
▁àríwá	-5581
▁ìṣírí	-5582
▁choice	-5583
▁walking	-5584
ouble	-5585
▁Simil	-5586
▁histor	-5587
▁28:	-5588
▁cry	-5589
▁parts	-5590
▁humble	-5591
▁arrived	-5592
▁oil	-5593
▁lohun	-5594
▁deeply	-5595
▁Med	-5596
▁sìgá	-5597
ago	-5598
ume	-5599
omin	-5600
point	-5601
▁trying	-5602
▁beautiful	-5603
▁eventually	-5604
son	-5605
▁Rec	-5606
▁gùn	-5607
▁faced	-5608
▁polongo	-5609
ṣán	-5610
▁boy	-5611
▁Know	-5612
▁Ephesians	-5613
▁repe	-5614
▁Ìdílé	-5615
▁fulfilled	-5616
▁Es	-5617
▁vers	-5618
▁ẹṣin	-5619
▁ìgbìmọ̀	-5620
2.	-5621
▁koko	-5622
▁translation	-5623
Èyí	-5624
▁School	-5625
▁ológun	-5626
inṣin	-5627
▁Dis	-5628
▁uni	-5629
▁ìpè	-5630
urufú	-5631
veness	-5632
▁March	-5633
▁honest	-5634
▁feeling	-5635
dia	-5636
▁Kejì	-5637
▁camp	-5638
▁Further	-5639
where	-5640
ranted	-5641
▁schol	-5642
▁articles	-5643
bia	-5644
udi	-5645
They	-5646
▁warm	-5647
▁àìpẹ́	-5648
▁stress	-5649
▁burn	-5650
▁territ	-5651
oking	-5652
fíṣọ̀n	-5653
úra	-5654
raid	-5655
▁Ans	-5656
▁Òkè	-5657
ronic	-5658
▁ahead	-5659
▁sacred	-5660
▁original	-5661
▁challenges	-5662
aris	-5663
▁Sha	-5664
▁wide	-5665
▁ìyìn	-5666
▁Rọ́ṣíà	-5667
▁social	-5668
ip	-5669
▁related	-5670
▁assigned	-5671
▁Gu	-5672
▁univer	-5673
▁encouragement	-5674
▁dìgbà	-5675
▁fulfillment	-5676
▁rin	-5677
graph	-5678
▁kíláàsì	-5679
ww	-5680
ING	-5681
díò	-5682
iled	-5683
marè	-5684
▁www	-5685
▁igbó	-5686
dùmarè	-5687
ṣàkóso	-5688
▁image	-5689
set	-5690
ùnnú	-5691
▁term	-5692
erness	-5693
▁corrup	-5694
wer	-5695
conom	-5696
▁ìdùnnú	-5697
▁Clearly	-5698
▁warning	-5699
▁conditions	-5700
ury	-5701
▁Sec	-5702
▁spend	-5703
▁Èlíjà	-5704
▁Gi	-5705
▁26.	-5706
▁afẹ́	-5707
▁lógún	-5708
▁nímọ̀ràn	-5709
pect	-5710
▁Soon	-5711
▁Oòrùn	-5712
▁almost	-5713
▁wealth	-5714
▁dece	-5715
▁Trans	-5716
fuurufú	-5717
▁láìpẹ́	-5718
▁business	-5719
▁evening	-5720
▁distress	-5721
▁proclaim	-5722
lógójì	-5723
▁relief	-5724
▁destroy	-5725
▁traveling	-5726
▁Est	-5727
▁jogún	-5728
▁script	-5729
wèé	-5730
▁abs	-5731
ology	-5732
rents	-5733
▁simple	-5734
ots	-5735
▁escap	-5736
▁ogójì	-5737
▁gbígbé	-5738
▁Rántí	-5739
▁battle	-5740
▁lẹ́sẹ̀	-5741
▁Àpilẹ̀kọ	-5742
indi	-5743
kìkí	-5744
eless	-5745
▁army	-5746
▁nira	-5747
ized	-5748
▁gar	-5749
▁rain	-5750
▁suffe	-5751
▁expressed	-5752
ery	-5753
▁70	-5754
▁ak	-5755
▁contact	-5756
▁lù	-5757
cycl	-5758
▁àlejò	-5759
▁big	-5760
▁idol	-5761
▁active	-5762
ití	-5763
▁àṣ	-5764
lànà	-5765
tọ̀ọ́	-5766
▁High	-5767
▁alco	-5768
▁ẹlẹ́ṣẹ̀	-5769
▁Brooklyn	-5770
▁included	-5771
▁security	-5772
▁27.	-5773
▁ìkànnì	-5774
▁Ìsọfúnni	-5775
raga	-5776
▁noted	-5777
▁àníyàn	-5778
ńbà	-5779
▁kẹta	-5780
▁mímú	-5781
gative	-5782
▁Olódùmarè	-5783
▁ele	-5784
▁Lear	-5785
▁ìmúṣẹ	-5786
▁conclus	-5787
▁established	-5788
▁han	-5789
▁mur	-5790
ciple	-5791
▁sáré	-5792
▁Fẹ́	-5793
▁PAGE	-5794
▁court	-5795
▁initi	-5796
▁forget	-5797
1:	-5798
ilé	-5799
gers	-5800
▁wel	-5801
▁abúlé	-5802
▁jagun	-5803
▁Despite	-5804
▁gods	-5805
▁inten	-5806
▁behalf	-5807
▁cra	-5808
gbèkùn	-5809
lected	-5810
▁cases	-5811
▁lọ́run	-5812
▁approach	-5813
▁immediately	-5814
▁jẹ̀	-5815
▁ọjà	-5816
▁Ruth	-5817
lọ́rùn	-5818
▁Faith	-5819
▁Where	-5820
▁parent	-5821
ǹlà	-5822
▁forí	-5823
▁nìyí	-5824
▁jákèjádò	-5825
IB	-5826
▁ṣinṣin	-5827
▁ẹlẹ́sìn	-5828
oní	-5829
▁km	-5830
▁Mẹ́	-5831
▁Over	-5832
▁names	-5833
▁illustration	-5834
omi	-5835
▁Ca	-5836
▁èwe	-5837
▁mímu	-5838
▁struc	-5839
▁recent	-5840
▁resist	-5841
▁ìwòsàn	-5842
▁Uni	-5843
▁Every	-5844
▁Church	-5845
▁inhabit	-5846
▁protection	-5847
anish	-5848
mọ́ra	-5849
jinlẹ̀	-5850
▁observe	-5851
BÉLÌ	-5852
▁Gal	-5853
▁ìmọ	-5854
▁ṣàkó	-5855
▁òkùnkùn	-5856
▁ẹgbẹẹgbẹ̀rún	-5857
▁deb	-5858
anced	-5859
▁hurt	-5860
▁Láwọn	-5861
▁animals	-5862
▁studies	-5863
va	-5864
máa	-5865
raoh	-5866
▁bar	-5867
▁akéde	-5868
▁BÍBÉLÌ	-5869
▁accounts	-5870
▁official	-5871
▁Mos	-5872
ylvan	-5873
athered	-5874
▁improve	-5875
▁Go	-5876
▁lie	-5877
▁Penn	-5878
▁examine	-5879
▁Wàá	-5880
▁Good	-5881
▁desc	-5882
▁kóun	-5883
▁chosen	-5884
▁tẹlifíṣọ̀n	-5885
As	-5886
▁gbin	-5887
▁ọ̀wọ̀	-5888
▁aláìsàn	-5889
▁ọlọ́rọ̀	-5890
▁publications	-5891
rayá	-5892
▁Mex	-5893
▁ibò	-5894
▁loss	-5895
▁gúúsù	-5896
▁troub	-5897
dem	-5898
▁fit	-5899
▁cope	-5900
▁léwu	-5901
▁unity	-5902
▁tongue	-5903
▁Remember	-5904
▁daughters	-5905
▁emotional	-5906
▁YOU	-5907
▁bab	-5908
pects	-5909
▁Lédè	-5910
▁save	-5911
▁Ẹ̀yin	-5912
hoto	-5913
▁Sad	-5914
▁gun	-5915
▁Comm	-5916
▁mark	-5917
anturu	-5918
ylvania	-5919
▁affected	-5920
▁Similarly	-5921
acle	-5922
ners	-5923
orrow	-5924
▁gone	-5925
▁ahọ́n	-5926
▁calls	-5927
▁ńláǹlà	-5928
pú	-5929
▁Fam	-5930
▁jáì	-5931
▁abẹ	-5932
▁gẹ́	-5933
▁Ìlú	-5934
▁ìdẹ	-5935
▁aware	-5936
1.	-5937
ONG	-5938
ban	-5939
▁Há	-5940
▁Su	-5941
▁21,	-5942
andon	-5943
▁pípa	-5944
▁òfuurufú	-5945
tians	-5946
síwájú	-5947
▁final	-5948
▁níbẹ̀rẹ̀	-5949
▁bit	-5950
▁tab	-5951
▁Pers	-5952
▁pátá	-5953
▁cultivate	-5954
lag	-5955
dindi	-5956
▁ọ̀mọ̀wé	-5957
akọ	-5958
ert	-5959
▁Tẹ	-5960
▁arìnrìn	-5961
▁dun	-5962
eness	-5963
▁idea	-5964
▁opened	-5965
▁principle	-5966
let	-5967
rain	-5968
uther	-5969
▁enter	-5970
▁sinmi	-5971
▁Pharaoh	-5972
▁negative	-5973
▁political	-5974
che	-5975
▁wọ́pọ̀	-5976
aly	-5977
▁wó	-5978
▁35.	-5979
▁mental	-5980
▁despite	-5981
▁forward	-5982
▁workers	-5983
fè	-5984
ṣúà	-5985
▁ire	-5986
▁lesson	-5987
▁Ìgbàgbọ́	-5988
ats	-5989
▁ṣó	-5990
▁“[	-5991
▁suc	-5992
lying	-5993
▁lòun	-5994
▁altar	-5995
▁refuge	-5996
▁recognize	-5997
▁worshippers	-5998
gò	-5999
▁Germany	-6000
▁realized	-6001
▁affection	-6002
rayé	-6003
itary	-6004
▁looked	-6005
▁nature	-6006
▁medical	-6007
▁publishers	-6008
▁hy	-6009
▁Òǹ	-6010
▁33.	-6011
▁gbẹ	-6012
urning	-6013
▁Really	-6014
▁afraid	-6015
▁Ikú	-6016
▁wẹ́	-6017
▁fell	-6018
▁Jékọ́bù	-6019
▁Nigeria	-6020
▁yanturu	-6021
▁ìjìnlẹ̀	-6022
▁humility	-6023
aria	-6024
dákà	-6025
▁Mal	-6026
▁Sund	-6027
▁ọ̀pá	-6028
▁Jóṣúà	-6029
▁delive	-6030
▁ọ̀wọ́n	-6031
▁carefully	-6032
OD	-6033
”!	-6034
▁òwú	-6035
▁lásìkò	-6036
erve	-6037
▁Tẹ́	-6038
▁ìṣò	-6039
kòóso	-6040
▁mild	-6041
mitted	-6042
▁prophets	-6043
▁importance	-6044
Bá	-6045
àrà	-6046
▁top	-6047
finite	-6048
▁truths	-6049
▁signific	-6050
▁ide	-6051
▁opó	-6052
uable	-6053
▁norm	-6054
▁respon	-6055
sylvania	-6056
▁standing	-6057
▁aá	-6058
▁Lọ́wọ́	-6059
▁closer	-6060
▁obtain	-6061
lè	-6062
rere	-6063
▁àlá	-6064
ublic	-6065
▁hous	-6066
jected	-6067
▁Aaron	-6068
▁Isaac	-6069
▁etern	-6070
▁master	-6071
▁dájúdájú	-6072
▁involves	-6073
▁Arábìnrin	-6074
▁Pennsylvania	-6075
pútà	-6076
▁Ìtàn	-6077
▁àtọ̀	-6078
▁àtúnṣe	-6079
▁ìràwọ̀	-6080
▁látìgbà	-6081
▁request	-6082
▁láìka	-6083
▁Children	-6084
▁remained	-6085
▁surround	-6086
iron	-6087
▁silver	-6088
▁society	-6089
▁ṣàníyàn	-6090
All	-6091
méjì	-6092
ǹpútà	-6093
ón	-6094
▁28,	-6095
▁Ques	-6096
▁seed	-6097
Má	-6098
uty	-6099
▁Ecc	-6100
▁Ọwọ́	-6101
▁Encycl	-6102
OM	-6103
lict	-6104
votion	-6105
▁quali	-6106
▁Should	-6107
▁manner	-6108
▁consequences	-6109
▁Through	-6110
▁prepare	-6111
▁persecution	-6112
▁dìí	-6113
▁key	-6114
▁urged	-6115
▁surpris	-6116
▁dedicated	-6117
sh	-6118
▁rid	-6119
▁music	-6120
▁observed	-6121
20	-6122
ajì	-6123
▁dídá	-6124
▁fìyà	-6125
gbèésí	-6126
lọ́gọ̀	-6127
▁advant	-6128
▁pàfiyèsí	-6129
▁Yìí	-6130
gbèrè	-6131
▁Lójú	-6132
▁stood	-6133
▁stran	-6134
▁succeed	-6135
▁gathered	-6136
▁MÁ	-6137
arden	-6138
owers	-6139
▁Matt	-6140
▁Tract	-6141
▁agree	-6142
▁flock	-6143
▁judge	-6144
▁sípàdé	-6145
▁Paradise	-6146
ẹẹsẹ	-6147
▁lọ̀	-6148
▁sad	-6149
▁2000	-6150
▁kíkọ́	-6151
▁ṣèwádìí	-6152
ese	-6153
bájọ	-6154
▁ric	-6155
sẹẹsẹ	-6156
▁fill	-6157
▁keeping	-6158
2:	-6159
ìyàn	-6160
▁Mount	-6161
▁pípéye	-6162
▁ìkìlọ̀	-6163
▁experiences	-6164
ogi	-6165
ṣàrò	-6166
▁Jord	-6167
dàájọ́	-6168
▁Orúkọ	-6169
▁lẹ́bi	-6170
▁asking	-6171
▁seemed	-6172
▁carried	-6173
▁níjàánu	-6174
ata	-6175
▁tax	-6176
▁meant	-6177
▁ìsinmi	-6178
▁delivered	-6179
’?	-6180
Why	-6181
enty	-6182
▁Alex	-6183
▁goes	-6184
▁reported	-6185
emy	-6186
ásí	-6187
▁warn	-6188
▁Ẹ̀ka	-6189
dínláà	-6190
▁discern	-6191
▁sharing	-6192
TH	-6193
bar	-6194
▁dò	-6195
▁ìkà	-6196
▁abandon	-6197
ator	-6198
▁30.	-6199
▁sow	-6200
▁unf	-6201
bẹ̀wò	-6202
▁Rome	-6203
▁Abájọ	-6204
▁conclud	-6205
▁imagine	-6206
wárí	-6207
▁Feb	-6208
▁lápá	-6209
ference	-6210
▁Austra	-6211
ironment	-6212
rid	-6213
▁fè	-6214
bùkù	-6215
▁fàdákà	-6216
▁illness	-6217
▁tribulation	-6218
▁Hum	-6219
▁tóó	-6220
▁eager	-6221
▁thank	-6222
amp	-6223
com	-6224
▁tinú	-6225
hearted	-6226
▁groups	-6227
▁devotion	-6228
▁increase	-6229
▁Ọ̀gbẹ́ni	-6230
▁personally	-6231
IC	-6232
▁Naz	-6233
▁miss	-6234
▁Sunday	-6235
▁appeal	-6236
▁Spanish	-6237
▁Memorial	-6238
▁nígbèésí	-6239
▁ve	-6240
▁Char	-6241
▁ògiri	-6242
sọtẹ́lẹ̀	-6243
▁visited	-6244
eri	-6245
▁survi	-6246
▁Ìrántí	-6247
▁ayérayé	-6248
▁láṣẹ	-6249
6:	-6250
Now	-6251
mes	-6252
aced	-6253
▁wal	-6254
▁ẹja	-6255
▁jọba	-6256
▁pure	-6257
kíyèsí	-6258
▁Láìsí	-6259
▁loyalty	-6260
acy	-6261
▁fle	-6262
ption	-6263
▁lọ́hùn	-6264
kọ̀ọ́kọ́	-6265
leg	-6266
òye	-6267
▁Lev	-6268
icate	-6269
▁Mart	-6270
ọkànwá	-6271
▁measure	-6272
▁contrast	-6273
▁required	-6274
▁arrangement	-6275
▁resurrected	-6276
AS	-6277
ayé	-6278
▁ṢE	-6279
▁26:	-6280
▁Cha	-6281
▁ess	-6282
▁ṣèp	-6283
kẹ̀lé	-6284
▁bímọ	-6285
tified	-6286
▁Àkókò	-6287
▁produce	-6288
▁lágbègbè	-6289
IBLE	-6290
▁ròyìn	-6291
▁believed	-6292
mọn	-6293
▁Àbí	-6294
teful	-6295
▁Happ	-6296
▁yára	-6297
▁blind	-6298
▁dìídì	-6299
▁picture	-6300
▁nígbàgbọ́	-6301
ónì	-6302
▁Nì	-6303
▁Abi	-6304
▁condem	-6305
▁mighty	-6306
▁ìdárayá	-6307
▁treatment	-6308
raw	-6309
▁unclean	-6310
3.	-6311
lls	-6312
omy	-6313
▁ṣojú	-6314
wọ́gbà	-6315
▁front	-6316
▁olóye	-6317
▁vision	-6318
▁kọ̀ǹpútà	-6319
▁Nove	-6320
▁November	-6321
▁mountains	-6322
▁San	-6323
▁tóo	-6324
▁copy	-6325
bójútó	-6326
▁greatly	-6327
ID	-6328
stes	-6329
▁sum	-6330
▁Hist	-6331
▁Mexico	-6332
▁seeing	-6333
▁elderly	-6334
ṣèlú	-6335
▁Brit	-6336
▁fool	-6337
▁ẹ̀ẹ̀	-6338
▁àjàrà	-6339
▁òmíràn	-6340
▁Keep	-6341
▁earn	-6342
▁send	-6343
▁oníwà	-6344
▁funfun	-6345
▁dedication	-6346
▁kára	-6347
▁instead	-6348
▁Australi	-6349
owó	-6350
▁Em	-6351
▁dẹ	-6352
▁27:	-6353
rences	-6354
▁although	-6355
▁behavior	-6356
bers	-6357
▁cru	-6358
▁Lónìí	-6359
▁shepherd	-6360
▁bed	-6361
▁conn	-6362
▁tẹnu	-6363
itable	-6364
▁econom	-6365
standing	-6366
▁Ps	-6367
▁ew	-6368
▁fá	-6369
uing	-6370
▁box	-6371
rently	-6372
▁BIBLE	-6373
▁ìwọ̀nba	-6374
▁suffered	-6375
▁inhabitants	-6376
bel	-6377
ràá	-6378
gest	-6379
▁14;	-6380
▁sígbà	-6381
▁hearing	-6382
ńtí	-6383
▁fíì	-6384
▁Ẹnì	-6385
mímọ́	-6386
ruary	-6387
▁Cour	-6388
▁general	-6389
▁volunte	-6390
▁teachers	-6391
▁sovereign	-6392
7.	-6393
▁Ear	-6394
▁sens	-6395
▁chief	-6396
▁Síwájú	-6397
▁February	-6398
▁disciple	-6399
eks	-6400
▁lójúfò	-6401
▁becomes	-6402
▁process	-6403
▁attended	-6404
▁developed	-6405
líá	-6406
▁heav	-6407
▁demand	-6408
▁attending	-6409
▁practices	-6410
▁glor	-6411
▁Ẹgbẹ́	-6412
▁kẹ́yìn	-6413
▁báà	-6414
▁purp	-6415
▁Questions	-6416
láé	-6417
▁AN	-6418
beli	-6419
▁agb	-6420
▁sust	-6421
▁gbéṣẹ́	-6422
▁tìtorí	-6423
▁declared	-6424
ize	-6425
▁sà	-6426
▁path	-6427
▁wait	-6428
▁basic	-6429
▁conce	-6430
▁repro	-6431
▁bìkítà	-6432
ńlá	-6433
▁air	-6434
stood	-6435
▁Each	-6436
▁Transl	-6437
cks	-6438
▁Rel	-6439
▁song	-6440
▁àwọ̀	-6441
▁opposition	-6442
▁Up	-6443
▁Only	-6444
kẹ́gbẹ́	-6445
▁waters	-6446
▁Ìgbésí	-6447
▁refused	-6448
▁overseer	-6449
LẸ̀	-6450
▁wed	-6451
túnṣe	-6452
▁finan	-6453
▁oorun	-6454
▁àgbáyé	-6455
▁response	-6456
▁grew	-6457
overed	-6458
▁relatives	-6459
▁mẹ́ẹ̀ẹ́dógún	-6460
àbí	-6461
▁lies	-6462
▁continues	-6463
▁convinced	-6464
▁commandments	-6465
iety	-6466
▁missionaries	-6467
▁Nà	-6468
▁fra	-6469
▁hig	-6470
▁gbọ́n	-6471
IA	-6472
ocra	-6473
▁Fil	-6474
▁hid	-6475
▁Vers	-6476
▁note	-6477
▁admon	-6478
▁mẹ́sàn	-6479
▁wilderness	-6480
lára	-6481
owed	-6482
rugẹ	-6483
▁Has	-6484
ọ́ràn	-6485
▁ògbó	-6486
▁ọgọ́	-6487
▁verse	-6488
▁strive	-6489
▁territory	-6490
▁Dó	-6491
▁pu	-6492
▁300	-6493
bè	-6494
kátà	-6495
▁kàkà	-6496
arding	-6497
▁points	-6498
▁manifest	-6499
▁Si	-6500
▁Cana	-6501
▁ìwọ̀	-6502
▁àdúgbò	-6503
▁obedience	-6504
▁ìsinsìnyí	-6505
HUN	-6506
▁App	-6507
ators	-6508
▁àsìkò	-6509
ati	-6510
nal	-6511
thy	-6512
lósè	-6513
ọjọ́	-6514
▁midst	-6515
▁values	-6516
hu	-6517
▁Pr	-6518
?"""	-6519
▁ark	-6520
usted	-6521
▁bani	-6522
gbàáyé	-6523
▁prior	-6524
▁àgbẹ̀	-6525
▁association	-6526
injù	-6527
▁àwò	-6528
▁dáwọ́	-6529
tically	-6530
▁batisí	-6531
▁harvest	-6532
▁lose	-6533
▁Kólósè	-6534
RÍ	-6535
▁Lóde	-6536
▁ìrántí	-6537
▁alcohol	-6538
▁limited	-6539
▁confident	-6540
amu	-6541
iré	-6542
▁Dr	-6543
ìnnì	-6544
otten	-6545
▁attem	-6546
▁garden	-6547
jọ̀gbọ́n	-6548
6.	-6549
dú	-6550
Who	-6551
▁pọ́n	-6552
▁ìkọ̀	-6553
gbogbo	-6554
ources	-6555
▁adití	-6556
▁limit	-6557
▁ọ̀sán	-6558
▁Eccles	-6559
▁alábàá	-6560
▁overcome	-6561
▁pioneers	-6562
▁reasonable	-6563
▁II	-6564
line	-6565
▁glad	-6566
▁Táwọn	-6567
▁tẹ́nì	-6568
▁Family	-6569
▁issues	-6570
▁Ìròyìn	-6571
▁sovereignty	-6572
dle	-6573
▁Ṣó	-6574
aging	-6575
▁divor	-6576
▁gifts	-6577
▁street	-6578
▁ìṣẹ́jú	-6579
▁environment	-6580
Lá	-6581
▁mó	-6582
▁Ang	-6583
sàlẹ̀	-6584
▁sort	-6585
▁jàǹbá	-6586
▁patient	-6587
▁scienti	-6588
▁Oníwàásù	-6589
RA	-6590
▁ku	-6591
▁Book	-6592
▁ORIN	-6593
▁Thess	-6594
▁cross	-6595
▁Philippians	-6596
dẹ̀	-6597
imin	-6598
▁àtọmọ	-6599
▁Coloss	-6600
▁opening	-6601
▁ládùúgbò	-6602
▁preached	-6603
▁acceptable	-6604
mine	-6605
▁East	-6606
▁Moab	-6607
▁Teach	-6608
▁òkèèrè	-6609
rop	-6610
àánú	-6611
▁ens	-6612
▁Lond	-6613
▁kọrin	-6614
▁aginjù	-6615
▁ṣeyebíye	-6616
▁inheritance	-6617
EL	-6618
wẹ́	-6619
▁mì	-6620
▁gbẹ̀	-6621
▁irun	-6622
▁ráyè	-6623
▁riches	-6624
▁irúgbìn	-6625
▁ìfaradà	-6626
eep	-6627
gen	-6628
▁Pre	-6629
▁àgà	-6630
▁gorí	-6631
▁accomp	-6632
▁appeared	-6633
▁hor	-6634
▁SONG	-6635
▁teaches	-6636
▁American	-6637
▁situations	-6638
fara	-6639
úùtù	-6640
ẹ́dẹ́	-6641
▁dàbí	-6642
▁SONGS	-6643
▁trees	-6644
▁London	-6645
▁grateful	-6646
▁23,	-6647
▁bri	-6648
déhùn	-6649
jọsìn	-6650
kalẹ̀	-6651
spect	-6652
▁Sarah	-6653
▁enemy	-6654
▁gbógun	-6655
▁includes	-6656
▁concerned	-6657
▁responsible	-6658
ǹtì	-6659
▁Cy	-6660
▁non	-6661
bably	-6662
▁adop	-6663
racter	-6664
▁France	-6665
▁warned	-6666
▁ṣàṣeyọrí	-6667
omm	-6668
▁gó	-6669
▁àpò	-6670
▁mọ̀ọ́	-6671
▁ìdíje	-6672
▁newspa	-6673
▁4;	-6674
nira	-6675
pted	-6676
ọ̀ọ́	-6677
▁fre	-6678
▁ìjẹ́	-6679
▁aláyọ̀	-6680
▁ìdánilójú	-6681
▁Sea	-6682
▁Geor	-6683
▁finally	-6684
▁existence	-6685
líà	-6686
hari	-6687
▁àrò	-6688
▁asán	-6689
▁kàwé	-6690
▁Rúùtù	-6691
▁talking	-6692
dẹ	-6693
▁kíá	-6694
roduc	-6695
▁late	-6696
▁Among	-6697
▁inside	-6698
▁correct	-6699
▁ìjíròrò	-6700
ient	-6701
iring	-6702
▁Body	-6703
▁bákan	-6704
▁obedient	-6705
▁listening	-6706
▁conclusion	-6707
▁wra	-6708
notes	-6709
▁fòpin	-6710
▁nearly	-6711
▁Ìdáhùn	-6712
▁requires	-6713
▁presented	-6714
▁Ra	-6715
▁mut	-6716
▁spa	-6717
▁heed	-6718
▁risk	-6719
▁refres	-6720
▁darkness	-6721
ule	-6722
▁Mát	-6723
▁abuse	-6724
▁authorities	-6725
▁mal	-6726
▁Fara	-6727
▁Ẹ́kí	-6728
▁failed	-6729
▁police	-6730
▁ọ̀dọ́kùnrin	-6731
ṣágà	-6732
▁Val	-6733
bered	-6734
ction	-6735
▁bond	-6736
▁tele	-6737
▁aside	-6738
▁causes	-6739
▁pursue	-6740
▁Aṣ	-6741
ayọ̀	-6742
loved	-6743
iastes	-6744
▁Pàtàkì	-6745
▁student	-6746
jam	-6747
▁KÍ	-6748
▁ay	-6749
kòrí	-6750
▁bill	-6751
▁báni	-6752
▁Canaan	-6753
▁severe	-6754
▁putting	-6755
▁character	-6756
▁Ecclesiastes	-6757
èyí	-6758
▁alẹ́	-6759
▁jíjẹ	-6760
ilẹ̀ṣẹ̀	-6761
▁adjust	-6762
▁valuable	-6763
▁cell	-6764
▁mímọ̀	-6765
ernacle	-6766
▁descend	-6767
▁statement	-6768
CH	-6769
▁lówó	-6770
▁Ẹ̀rí	-6771
▁alára	-6772
▁content	-6773
▁trouble	-6774
▁military	-6775
▁entertain	-6776
▁Ken	-6777
▁Two	-6778
ening	-6779
▁oper	-6780
▁ibùdó	-6781
▁ìṣúra	-6782
0’	-6783
cked	-6784
mates	-6785
▁Ìsìn	-6786
▁easily	-6787
▁committed	-6788
▁Christianity	-6789
▁Gra	-6790
▁backg	-6791
▁rọ́pò	-6792
▁saved	-6793
▁tọ̀nà	-6794
▁láwùjọ	-6795
▁describes	-6796
ush	-6797
▁Mọ	-6798
tery	-6799
▁cost	-6800
▁enab	-6801
▁nídè	-6802
▁viewed	-6803
▁ṣú	-6804
chie	-6805
▁Russia	-6806
▁lárugẹ	-6807
▁assured	-6808
ánà	-6809
▁gígùn	-6810
▁ìtura	-6811
▁Translation	-6812
takò	-6813
úrẹ́dì	-6814
visions	-6815
▁punish	-6816
oples	-6817
urely	-6818
▁type	-6819
▁discreet	-6820
look	-6821
▁Blurb	-6822
▁fìgbà	-6823
▁ẹgbàá	-6824
▁forgive	-6825
hasi	-6826
oles	-6827
▁10;	-6828
▁OHUN	-6829
▁cove	-6830
▁none	-6831
▁mọ́lé	-6832
▁eating	-6833
▁energy	-6834
▁younger	-6835
▁tabernacle	-6836
sha	-6837
▁ìk	-6838
▁Pet	-6839
▁loves	-6840
▁weeks	-6841
▁possib	-6842
▁successful	-6843
Ọmọ	-6844
pent	-6845
▁àdí	-6846
▁Well	-6847
▁remem	-6848
▁Center	-6849
▁àìlera	-6850
▁ìṣàpẹẹrẹ	-6851
ju	-6852
how	-6853
oyal	-6854
▁Tún	-6855
▁Àá	-6856
keep	-6857
bẹ̀rù	-6858
▁comment	-6859
empl	-6860
lẹ́ń	-6861
▁16;	-6862
ounds	-6863
▁Step	-6864
▁ìṣèlú	-6865
▁gbilẹ̀	-6866
▁panṣágà	-6867
▁referred	-6868
iv	-6869
isí	-6870
▁ÀP	-6871
líádì	-6872
Ẹ̀yin	-6873
▁anti	-6874
▁uses	-6875
spring	-6876
▁beast	-6877
▁offic	-6878
▁òwúrọ̀	-6879
UR	-6880
ÌN	-6881
▁lẹ	-6882
▁obli	-6883
▁apart	-6884
▁Ìlànà	-6885
▁caring	-6886
▁iléèwé	-6887
▁moment	-6888
▁ìbàjẹ́	-6889
▁sustain	-6890
▁pleasure	-6891
fikún	-6892
▁Beth	-6893
▁incl	-6894
▁metho	-6895
▁ìparí	-6896
▁England	-6897
▁ìṣòtítọ́	-6898
▁understood	-6899
▁conversation	-6900
nor	-6901
▁hom	-6902
asing	-6903
▁Egyp	-6904
▁Ronú	-6905
▁àṣàrò	-6906
▁aláwọ̀	-6907
▁Ìtumọ̀	-6908
▁ẹ̀ẹ́dẹ́	-6909
▁universe	-6910
▁demonstrate	-6911
ọ́nú	-6912
▁Omi	-6913
▁aid	-6914
▁dénú	-6915
▁fast	-6916
▁àṣírí	-6917
▁ìnira	-6918
▁àgbèrè	-6919
▁afẹ́fẹ́	-6920
▁Footnotes	-6921
▁highlight	-6922
imu	-6923
▁ki	-6924
▁Apá	-6925
▁tas	-6926
▁àpá	-6927
order	-6928
▁touc	-6929
▁exper	-6930
▁story	-6931
▁table	-6932
▁tipasẹ̀	-6933
▁bringing	-6934
▁particularly	-6935
▁Cl	-6936
▁Gan	-6937
▁Lat	-6938
▁wood	-6939
itating	-6940
No	-6941
rẹ́sì	-6942
▁cast	-6943
▁fish	-6944
▁rout	-6945
▁tálá	-6946
rẹ́rẹ́	-6947
▁onínú	-6948
▁Mother	-6949
▁ṣàìsàn	-6950
▁Ipa	-6951
ights	-6952
▁bound	-6953
▁Látinú	-6954
▁lẹ́mìí	-6955
▁prospect	-6956
míì	-6957
▁32.	-6958
opedia	-6959
▁train	-6960
▁ẹ̀sùn	-6961
▁writer	-6962
▁ṣàpẹẹrẹ	-6963
▁patience	-6964
▁repeated	-6965
bors	-6966
díẹ̀	-6967
▁Bri	-6968
▁Tàbí	-6969
▁àgbé	-6970
▁guide	-6971
▁Láìpẹ́	-6972
▁circuit	-6973
▁ìpínrọ̀	-6974
▁alákòóso	-6975
▁onísáàmù	-6976
gbin	-6977
▁Make	-6978
▁adds	-6979
▁Benjam	-6980
▁bùkátà	-6981
▁ṣàkóbá	-6982
▁community	-6983
▁sees	-6984
▁notes	-6985
▁quoted	-6986
▁render	-6987
▁anxiety	-6988
▁careful	-6989
▁comments	-6990
▁Governing	-6991
▁Gílíádì	-6992
▁violent	-6993
kọlé	-6994
▁typ	-6995
fóònù	-6996
kigbà	-6997
▁bíbá	-6998
▁ship	-6999
tively	-7000
ṣekúṣe	-7001
▁mọ́ni	-7002
▁quite	-7003
gbẹ̀yìn	-7004
▁nítumọ̀	-7005
▁àdírẹ́sì	-7006
▁34:	-7007
▁ìpa	-7008
ument	-7009
▁baby	-7010
▁slow	-7011
sẹ̀yìn	-7012
▁Micha	-7013
▁fẹsẹ̀	-7014
▁grain	-7015
▁tribe	-7016
▁ṣàṣàrò	-7017
▁reached	-7018
▁ṣàǹfààní	-7019
▁forgiveness	-7020
▁Bóyá	-7021
▁fipá	-7022
▁gbèsè	-7023
▁ìdẹwò	-7024
vention	-7025
▁arrest	-7026
▁Ed	-7027
▁IS	-7028
▁13;	-7029
▁ihò	-7030
▁Minist	-7031
▁tórúkọ	-7032
▁growing	-7033
▁advantage	-7034
4:	-7035
ọnu	-7036
▁du	-7037
▁Ọs	-7038
alon	-7039
ìlẹ̀	-7040
▁táwa	-7041
asures	-7042
irélíà	-7043
▁divid	-7044
▁lọ́lá	-7045
▁Àdúrà	-7046
▁Ọsirélíà	-7047
ora	-7048
ìrì	-7049
▁hí	-7050
▁dream	-7051
▁entered	-7052
▁àṣeyọrí	-7053
US	-7054
500	-7055
▁ibo	-7056
▁red	-7057
▁endea	-7058
▁àfiyèsí	-7059
ook	-7060
ribu	-7061
▁cele	-7062
▁conv	-7063
▁igba	-7064
▁Maria	-7065
▁throne	-7066
▁approval	-7067
▁lẹ́tọ̀ọ́	-7068
ics	-7069
▁Yí	-7070
TION	-7071
▁houses	-7072
▁ìpìlẹ̀	-7073
▁national	-7074
▁Help	-7075
▁Àgbà	-7076
ẹ́síkò	-7077
▁achie	-7078
▁super	-7079
▁Mẹ́síkò	-7080
▁advance	-7081
▁praying	-7082
▁publication	-7083
ank	-7084
mas	-7085
vey	-7086
anda	-7087
▁troubled	-7088
▁discussion	-7089
▁wickedness	-7090
▁ST	-7091
▁Ètò	-7092
▁Káná	-7093
▁stone	-7094
unities	-7095
▁kúkúrú	-7096
▁ìbátan	-7097
▁reality	-7098
▁upright	-7099
▁drinking	-7100
Go	-7101
odè	-7102
▁OF	-7103
▁12;	-7104
▁Test	-7105
▁legal	-7106
▁beloved	-7107
▁peoples	-7108
▁overseers	-7109
hon	-7110
▁òò	-7111
Keep	-7112
ohun	-7113
tify	-7114
▁ruler	-7115
kiah	-7116
▁sáà	-7117
erous	-7118
▁Ọ̀gá	-7119
▁Kánádà	-7120
▁amount	-7121
▁company	-7122
▁popular	-7123
▁secular	-7124
bur	-7125
dára	-7126
▁Tẹsal	-7127
▁chose	-7128
▁conqu	-7129
▁tẹ̀lé	-7130
▁gbẹ̀mí	-7131
▁olùfẹ́	-7132
▁sevent	-7133
▁helpful	-7134
▁creatures	-7135
▁discussed	-7136
after	-7137
might	-7138
mùgọ̀	-7139
▁date	-7140
▁wish	-7141
▁Being	-7142
▁island	-7143
▁encouraging	-7144
rict	-7145
▁capa	-7146
▁opin	-7147
▁dópin	-7148
▁búrẹ́dì	-7149
▁Colossians	-7150
▁17;	-7151
▁por	-7152
ríyìn	-7153
▁adul	-7154
èdì	-7155
ived	-7156
▁Sab	-7157
▁Sup	-7158
▁buy	-7159
▁unique	-7160
▁Version	-7161
▁lọ́fẹ̀ẹ́	-7162
▁invitation	-7163
xed	-7164
▁doctor	-7165
▁merely	-7166
▁placed	-7167
▁appearance	-7168
▁companions	-7169
gé	-7170
tálì	-7171
▁26,	-7172
▁ann	-7173
▁ast	-7174
▁shi	-7175
▁ìta	-7176
▁Once	-7177
▁tààrà	-7178
▁produced	-7179
KỌ	-7180
sà	-7181
poss	-7182
work	-7183
▁busy	-7184
▁Kìíní	-7185
▁deeds	-7186
▁global	-7187
▁speaks	-7188
▁Philist	-7189
▁contains	-7190
▁satisfaction	-7191
▁Ja	-7192
▁yè	-7193
▁Eph	-7194
péènì	-7195
▁rise	-7196
▁ṣàdé	-7197
mighty	-7198
▁pride	-7199
▁Sípéènì	-7200
▁iyebíye	-7201
▁lọ́dọọdún	-7202
och	-7203
▁8;	-7204
utar	-7205
onomy	-7206
▁Sovi	-7207
▁oore	-7208
▁Gospel	-7209
▁Tẹsaló	-7210
▁Thessalon	-7211
▁offspring	-7212
▁commission	-7213
uck	-7214
fies	-7215
▁11;	-7216
▁ìtò	-7217
rẹ̀wẹ̀sì	-7218
▁endurance	-7219
▁establish	-7220
▁paragraph	-7221
▁6;	-7222
ríjì	-7223
àájú	-7224
ẹ̀rẹ̀	-7225
▁kùnà	-7226
▁ìrẹ́	-7227
yèméjì	-7228
▁selfish	-7229
▁indicate	-7230
▁5;	-7231
odus	-7232
verty	-7233
▁bọlá	-7234
▁meal	-7235
ojúsùn	-7236
ṣòótọ́	-7237
▁tears	-7238
viously	-7239
ony	-7240
▁3;	-7241
▁arú	-7242
▁Finally	-7243
▁”	-7244
arc	-7245
iam	-7246
▁Ibo	-7247
▁arg	-7248
▁odi	-7249
▁kíkà	-7250
▁male	-7251
▁exact	-7252
▁flood	-7253
▁poverty	-7254
▁Jonathan	-7255
▁onírẹ̀lẹ̀	-7256
▁Tẹsalóníkà	-7257
pre	-7258
▁Ìlà	-7259
dọ́mọ	-7260
ónómì	-7261
▁east	-7262
▁remo	-7263
▁àgbá	-7264
▁Diutar	-7265
▁láéláé	-7266
▁sought	-7267
▁ńláńlá	-7268
▁pattern	-7269
▁Diutarónómì	-7270
▁Wal	-7271
▁ajé	-7272
▁appa	-7273
idents	-7274
▁extra	-7275
▁Ìlérí	-7276
▁àtakò	-7277
ocratic	-7278
▁Readers	-7279
▁evident	-7280
▁leading	-7281
▁writing	-7282
▁likewise	-7283
▁Lí	-7284
▁sat	-7285
▁àto	-7286
▁Pray	-7287
▁View	-7288
▁sábẹ́	-7289
▁ìrísí	-7290
▁struck	-7291
▁probably	-7292
▁University	-7293
▁prophecies	-7294
▁Furthermore	-7295
▁dil	-7296
▁Serv	-7297
▁ikọ̀	-7298
▁broken	-7299
▁increased	-7300
▁communication	-7301
will	-7302
ulted	-7303
ṣiṣẹ́	-7304
▁react	-7305
ception	-7306
▁Deuter	-7307
▁refers	-7308
▁Deuteronomy	-7309
ókù	-7310
▁due	-7311
▁hun	-7312
▁rọra	-7313
▁ṣeni	-7314
▁drugs	-7315
▁heavy	-7316
▁sísun	-7317
▁ààbọ̀	-7318
▁listed	-7319
▁aspects	-7320
▁Kọ	-7321
jijì	-7322
lical	-7323
▁tent	-7324
▁immoral	-7325
▁letters	-7326
▁research	-7327
▁newspaper	-7328
EC	-7329
io	-7330
rand	-7331
thren	-7332
▁mour	-7333
▁níbí	-7334
▁Exodus	-7335
▁village	-7336
▁lágbàáyé	-7337
▁45	-7338
tàrí	-7339
ishes	-7340
▁Kíyè	-7341
▁lẹni	-7342
ternet	-7343
▁intim	-7344
▁sẹ́wọ̀n	-7345
▁welcome	-7346
▁ìtẹ́lọ́rùn	-7347
▁International	-7348
▁international	-7349
ograp	-7350
▁plag	-7351
▁animal	-7352
▁bitter	-7353
▁effects	-7354
▁factors	-7355
▁ìtẹ́wọ́gbà	-7356
▁opportunities	-7357
▁Time	-7358
▁farm	-7359
▁touch	-7360
▁Pharise	-7361
▁remains	-7362
GBÀ	-7363
léra	-7364
osop	-7365
tòṣì	-7366
▁láá	-7367
lẹ́bí	-7368
▁pred	-7369
▁gbajú	-7370
fulness	-7371
▁Poland	-7372
▁attrac	-7373
▁ìṣègùn	-7374
lease	-7375
▁ọ̀là	-7376
▁tender	-7377
ological	-7378
▁agbègbè	-7379
▁ojoojúmọ́	-7380
▁Sal	-7381
▁Gala	-7382
▁released	-7383
jw	-7384
tọ	-7385
eral	-7386
osing	-7387
▁Gbọ́	-7388
▁Work	-7389
▁tìrẹ	-7390
titute	-7391
▁àpáta	-7392
▁ẹ̀kún	-7393
▁àfikún	-7394
▁celebra	-7395
▁insight	-7396
▁expected	-7397
▁weakness	-7398
▁Australia	-7399
▁dangerous	-7400
),	-7401
mary	-7402
▁---	-7403
▁kid	-7404
▁ẹ̀f	-7405
ticed	-7406
▁wall	-7407
▁Times	-7408
▁débẹ̀	-7409
▁fídíò	-7410
▁extent	-7411
▁olùjọsìn	-7412
▁offerings	-7413
EA	-7414
ṣòwò	-7415
▁ọkà	-7416
▁Hear	-7417
▁impa	-7418
▁drawn	-7419
▁àkàwé	-7420
ography	-7421
▁slaves	-7422
▁appears	-7423
▁ṣàtúnṣe	-7424
▁fruitage	-7425
▁ẹlẹ́wọ̀n	-7426
▁ìgbẹ́kẹ̀lé	-7427
▁èè	-7428
whel	-7429
▁hop	-7430
ọ̀rún	-7431
ọ́ọ̀bù	-7432
▁minds	-7433
▁demons	-7434
▁growth	-7435
lẹ́sẹẹsẹ	-7436
▁contrary	-7437
▁consideration	-7438
▁UN	-7439
felt	-7440
hùwà	-7441
▁léra	-7442
▁okùn	-7443
▁stic	-7444
▁vari	-7445
▁wíwá	-7446
▁ọ̀wọ́	-7447
▁William	-7448
▁complain	-7449
▁mọ̀lẹ́bí	-7450
▁subjects	-7451
▁responded	-7452
▁Bu	-7453
▁LÁ	-7454
▁dù	-7455
▁yó	-7456
ield	-7457
▁bod	-7458
▁rebu	-7459
▁Ítálì	-7460
▁escape	-7461
▁orísun	-7462
▁tálákà	-7463
▁conflict	-7464
▁àádọ́rin	-7465
▁translated	-7466
pè	-7467
▁9;	-7468
lẹbẹ	-7469
▁àtì	-7470
▁mass	-7471
▁team	-7472
ẹ́ẹ̀lì	-7473
▁Think	-7474
▁Soviet	-7475
▁òmùgọ̀	-7476
dọ́gbọ̀n	-7477
▁emotions	-7478
ancy	-7479
▁ord	-7480
▁uns	-7481
▁1914	-7482
▁Note	-7483
mission	-7484
▁Parents	-7485
).	-7486
kàrà	-7487
unif	-7488
▁Vis	-7489
▁sud	-7490
▁tọrọ	-7491
gbẹ̀ta	-7492
▁pípẹ́	-7493
▁wrath	-7494
▁zealous	-7495
dínlógójì	-7496
port	-7497
▁Eze	-7498
▁GOD	-7499
▁ìnà	-7500
▁recomm	-7501
irò	-7502
jud	-7503
vive	-7504
▁Ber	-7505
▁laid	-7506
▁lérò	-7507
▁weap	-7508
▁estim	-7509
▁raise	-7510
▁sudden	-7511
▁extreme	-7512
▁lessons	-7513
▁Ṣọ́ọ̀ṣì	-7514
áàdì	-7515
▁ver	-7516
ether	-7517
▁fèsì	-7518
▁race	-7519
▁sanc	-7520
▁inner	-7521
▁trained	-7522
▁wedding	-7523
▁assembly	-7524
don	-7525
▁Pri	-7526
▁sta	-7527
ṣègùn	-7528
▁dear	-7529
▁gbìn	-7530
▁pẹlẹbẹ	-7531
▁instruction	-7532
iet	-7533
tíà	-7534
tùú	-7535
▁Ṣè	-7536
▁ẹbí	-7537
▁jíjìn	-7538
▁kígbe	-7539
▁marry	-7540
▁Dókítà	-7541
▁normal	-7542
▁thanks	-7543
▁ṣàdédé	-7544
▁àsẹ̀yìn	-7545
▁ṣèpinnu	-7546
▁financial	-7547
hà	-7548
▁LÓ	-7549
▁pen	-7550
akọbu	-7551
▁Land	-7552
▁múni	-7553
▁Kọ́ni	-7554
▁Robert	-7555
▁joined	-7556
▁region	-7557
▁Without	-7558
▁ìrànwọ́	-7559
▁abundance	-7560
▁lẹ̀	-7561
▁WHAT	-7562
▁isol	-7563
▁spouse	-7564
▁Ìwádìí	-7565
▁journey	-7566
▁waiting	-7567
▁National	-7568
▁hundreds	-7569
▁associated	-7570
IV	-7571
SÍ	-7572
wh	-7573
tims	-7574
▁Inc	-7575
▁Nathan	-7576
▁lẹ́gbẹ̀ẹ́	-7577
▁temptation	-7578
▁àtọmọdọ́mọ	-7579
zes	-7580
aked	-7581
udes	-7582
▁gro	-7583
▁ìdè	-7584
lling	-7585
▁aago	-7586
▁didn	-7587
▁yọjú	-7588
▁store	-7589
▁undes	-7590
▁olùgbé	-7591
▁Internet	-7592
▁Co	-7593
▁ẹyọ	-7594
▁Prom	-7595
▁Take	-7596
▁feed	-7597
rọ̀lẹ́	-7598
▁àkọlé	-7599
▁studied	-7600
▁receiving	-7601
▁Ko	-7602
▁ir	-7603
pers	-7604
ásítì	-7605
▁hate	-7606
▁olówó	-7607
▁shared	-7608
▁ẹnìkan	-7609
▁decades	-7610
unifásítì	-7611
▁ọ̀kọ̀ọ̀kan	-7612
...,	-7613
sódù	-7614
▁Bel	-7615
áàánú	-7616
▁Court	-7617
▁widow	-7618
▁Esther	-7619
▁across	-7620
▁design	-7621
▁reject	-7622
▁overwhel	-7623
▁rejected	-7624
sive	-7625
▁comb	-7626
▁egun	-7627
▁kíkọ	-7628
▁tech	-7629
uments	-7630
▁gbéra	-7631
▁Íńdíà	-7632
▁eternal	-7633
▁Ẹ́kísódù	-7634
AM	-7635
ump	-7636
▁ja	-7637
▁Again	-7638
▁àkòrí	-7639
▁Jakọbu	-7640
▁gbígbà	-7641
▁notice	-7642
▁stopped	-7643
▁conclude	-7644
▁tradition	-7645
,""	-7646
ege	-7647
▁sé	-7648
oper	-7649
▁gradu	-7650
▁level	-7651
▁láìní	-7652
símímọ́	-7653
▁German	-7654
▁tóótun	-7655
pts	-7656
tee	-7657
▁Ham	-7658
▁bes	-7659
▁sán	-7660
▁yes	-7661
bàámu	-7662
látíà	-7663
▁clim	-7664
▁girls	-7665
▁Canada	-7666
▁mature	-7667
0.	-7668
gù	-7669
▁phil	-7670
ìnnìún	-7671
▁aṣojú	-7672
▁white	-7673
▁òtòṣì	-7674
▁ọmọlú	-7675
reation	-7676
▁weight	-7677
▁expressions	-7678
▁pi	-7679
▁sn	-7680
ford	-7681
▁Pres	-7682
▁Gálátíà	-7683
▁closely	-7684
▁nísàlẹ̀	-7685
righteous	-7686
▁purposes	-7687
▁acknowled	-7688
▁Spa	-7689
▁Ísá	-7690
▁walked	-7691
▁bearing	-7692
▁persons	-7693
▁promote	-7694
▁neighbors	-7695
▁|	-7696
iní	-7697
▁Day	-7698
▁ìsá	-7699
▁Bill	-7700
▁confir	-7701
▁gbòòrò	-7702
▁series	-7703
▁Levites	-7704
▁straight	-7705
▁evidently	-7706
▁strengthened	-7707
ÁN	-7708
pọn	-7709
▁Syri	-7710
kẹ́lẹ́	-7711
▁forms	-7712
▁plant	-7713
▁ríran	-7714
▁easier	-7715
álì	-7716
aded	-7717
▁].”	-7718
alára	-7719
▁Prot	-7720
▁prosper	-7721
▁gbóríyìn	-7722
ọ́rọ̀ọ̀rún	-7723
▁AR	-7724
essel	-7725
lẹ́nu	-7726
▁formed	-7727
▁treated	-7728
▁economic	-7729
▁particip	-7730
▁essential	-7731
▁immorality	-7732
OW	-7733
▁Wí	-7734
▁32:	-7735
▁Owó	-7736
▁vict	-7737
porary	-7738
▁omijé	-7739
▁US	-7740
▁Ìyà	-7741
▁cher	-7742
▁vine	-7743
▁applied	-7744
▁lápapọ̀	-7745
▁àbójútó	-7746
▁organized	-7747
▁hu	-7748
▁Ins	-7749
▁Yín	-7750
▁yọ́	-7751
síbẹ̀	-7752
▁ọmọn	-7753
▁directed	-7754
▁philosop	-7755
ads	-7756
usi	-7757
lled	-7758
▁Mọ̀	-7759
▁ẹwà	-7760
▁ọlọ	-7761
▁jèrè	-7762
▁decide	-7763
▁Gíríìsì	-7764
▁tẹlifóònù	-7765
aba	-7766
▁tit	-7767
rench	-7768
tọ́jú	-7769
▁Here	-7770
▁Learn	-7771
▁lulẹ̀	-7772
▁afflic	-7773
▁reveals	-7774
▁setting	-7775
▁ìrẹ̀wẹ̀sì	-7776
▁Ob	-7777
oked	-7778
▁unbeli	-7779
▁Imagine	-7780
▁goodness	-7781
Is	-7782
ems	-7783
azar	-7784
▁òsì	-7785
▁lẹ́ni	-7786
▁atúmọ̀	-7787
▁imposs	-7788
▁descendants	-7789
▁ìdúróṣinṣin	-7790
Máa	-7791
iro	-7792
ont	-7793
auty	-7794
tanú	-7795
▁31:	-7796
▁Mill	-7797
▁vide	-7798
▁Ẹjọ́	-7799
▁crime	-7800
titudes	-7801
▁Regarding	-7802
YÉ	-7803
ida	-7804
▁lin	-7805
léláà	-7806
ustri	-7807
▁gate	-7808
▁níhìn	-7809
▁wádìí	-7810
▁forces	-7811
▁Michael	-7812
▁miracul	-7813
▁husbands	-7814
▁religions	-7815
níà	-7816
tútù	-7817
▁ebi	-7818
▁Ìwò	-7819
▁nírú	-7820
▁Éṣíà	-7821
▁labor	-7822
▁trial	-7823
ràádọ́ta	-7824
▁ìpilẹ̀ṣẹ̀	-7825
▁constantly	-7826
ILẸ̀	-7827
▁pal	-7828
▁Kings	-7829
▁broch	-7830
▁àìmọ́	-7831
ẹ̀yìndà	-7832
▁involve	-7833
▁relates	-7834
▁ìdáríjì	-7835
▁òǹkọ̀wé	-7836
▁depression	-7837
vol	-7838
fying	-7839
ọ́rọ́	-7840
▁Elis	-7841
▁tẹrí	-7842
▁performed	-7843
dínlọ́gbọ̀n	-7844
eng	-7845
ify	-7846
wuye	-7847
▁kík	-7848
▁George	-7849
▁Rus	-7850
kúlẹ̀	-7851
ọ́nil	-7852
▁Kore	-7853
▁káwa	-7854
rékọjá	-7855
▁Earth	-7856
▁angry	-7857
▁facts	-7858
▁north	-7859
▁sunkún	-7860
▁superi	-7861
▁telling	-7862
▁providing	-7863
▁Mad	-7864
iliar	-7865
▁lying	-7866
▁Jordan	-7867
▁akọ̀wé	-7868
▁marvel	-7869
▁leaving	-7870
▁ìgbèkùn	-7871
▁designed	-7872
▁impressed	-7873
kad	-7874
▁fat	-7875
inary	-7876
▁Eden	-7877
▁Kéré	-7878
▁járí	-7879
▁verses	-7880
lẹ̀kúlẹ̀	-7881
▁History	-7882
▁Olùdarí	-7883
▁ọ̀dọ́mọ	-7884
▁Testament	-7885
kar	-7886
dòdó	-7887
iers	-7888
wàbí	-7889
▁25,	-7890
▁Pat	-7891
▁ali	-7892
▁Ìsí	-7893
iling	-7894
▁Both	-7895
▁kóra	-7896
▁Saulu	-7897
▁gbójú	-7898
▁ẹ̀bẹ̀	-7899
▁habits	-7900
▁odindi	-7901
▁Láfikún	-7902
▁doctrin	-7903
▁Biblical	-7904
▁àfojúsùn	-7905
▁Àsọtẹ́lẹ̀	-7906
aic	-7907
▁Ty	-7908
ilding	-7909
▁Micah	-7910
▁arúgbó	-7911
▁engage	-7912
▁gẹ́lẹ́	-7913
▁preced	-7914
▁remark	-7915
▁tìkára	-7916
▁àdéhùn	-7917
▁clothes	-7918
▁◆	-7919
Alá	-7920
Look	-7921
▁Que	-7922
veled	-7923
▁keeps	-7924
▁lèèyàn	-7925
▁nírètí	-7926
▁ọ̀gbẹ́ni	-7927
▁Encyclopedia	-7928
Wò	-7929
sy	-7930
fty	-7931
jọba	-7932
áàlú	-7933
▁MÁA	-7934
▁Pẹ́	-7935
lẹyìn	-7936
▁hair	-7937
▁feels	-7938
▁freely	-7939
▁mẹ́ńbà	-7940
▁lasting	-7941
▁ìtòlẹ́sẹẹsẹ	-7942
ee	-7943
olù	-7944
áráò	-7945
▁làá	-7946
▁pàà	-7947
▁sake	-7948
▁pẹ̀lẹ́	-7949
▁sinned	-7950
▁united	-7951
▁7;	-7952
▁Tọ́	-7953
▁port	-7954
▁medic	-7955
▁total	-7956
▁ṣàwárí	-7957
▁oníṣòwò	-7958
▁listened	-7959
▁struggle	-7960
▁àtọkànwá	-7961
▁TÁ	-7962
▁18;	-7963
▁Kẹ́	-7964
▁Lát	-7965
▁dọ̀	-7966
igent	-7967
kíẹ́lì	-7968
▁fíìmù	-7969
▁kọkàn	-7970
▁onígbọràn	-7971
▁assistance	-7972
bọ́	-7973
▁2;	-7974
bath	-7975
rose	-7976
▁fọ́n	-7977
▁unre	-7978
▁Study	-7979
▁calam	-7980
▁kẹ́sẹ	-7981
▁ẹ̀tàn	-7982
▁Galile	-7983
▁powers	-7984
▁ìdánwò	-7985
▁Látìgbà	-7986
▁divorce	-7987
▁proceed	-7988
▁recognized	-7989
ÌÍ	-7990
▁CH	-7991
yéfì	-7992
▁15;	-7993
▁epo	-7994
▁exh	-7995
ouris	-7996
▁níye	-7997
▁site	-7998
▁ṣètì	-7999
▁consum	-8000
▁dealing	-8001
▁superior	-8002
▁ìkórìíra	-8003
▁illustrate	-8004
asc	-8005
▁Its	-8006
▁Mag	-8007
▁báa	-8008
▁olè	-8009
ilára	-8010
▁dọ́là	-8011
▁frequ	-8012
▁grown	-8013
▁jálẹ̀	-8014
▁lóyún	-8015
▁recall	-8016
▁ẹlẹ́rìí	-8017
▁indicates	-8018
▁seriously	-8019
èfè	-8020
▁Gl	-8021
èfèrí	-8022
▁Ẹ́sí	-8023
▁ẹkún	-8024
yọ̀ǹda	-8025
▁cares	-8026
▁ideas	-8027
▁Ísákì	-8028
▁Alexand	-8029
▁earnest	-8030
▁pleased	-8031
▁Akẹ́kọ̀ọ́	-8032
▁Galatians	-8033
▁concluded	-8034
▁generation	-8035
To	-8036
KỌ̀	-8037
tig	-8038
lukú	-8039
sell	-8040
sárì	-8041
tóbi	-8042
yàyà	-8043
▁àmu	-8044
▁Nìdí	-8045
minist	-8046
▁India	-8047
▁Commit	-8048
▁promin	-8049
▁foolish	-8050
▁touched	-8051
▁victims	-8052
,"	-8053
fojì	-8054
otes	-8055
pass	-8056
▁34.	-8057
▁Don	-8058
arily	-8059
▁Títí	-8060
▁capt	-8061
▁ìlọ́	-8062
▁Fáráò	-8063
▁ìnàjú	-8064
onífojì	-8065
▁depend	-8066
▁àkọ́bí	-8067
▁heartfelt	-8068
▁faithfully	-8069
OVER	-8070
▁Ipò	-8071
jíríà	-8072
▁lógo	-8073
tition	-8074
▁ewúrẹ́	-8075
lẹ́kọ̀ọ́	-8076
▁herself	-8077
gẹ̀	-8078
▁Gba	-8079
▁Iye	-8080
▁Ter	-8081
▁lik	-8082
ested	-8083
oured	-8084
▁News	-8085
▁agbá	-8086
▁bold	-8087
▁dènà	-8088
▁Spain	-8089
▁views	-8090
▁occurred	-8091
▁difference	-8092
▁impossible	-8093
▁40:	-8094
aniah	-8095
oring	-8096
tivity	-8097
▁utter	-8098
▁ìkórè	-8099
▁perman	-8100
ornography	-8101
▁ogunlọ́gọ̀	-8102
bec	-8103
pend	-8104
▁rap	-8105
▁àká	-8106
▁leads	-8107
jection	-8108
▁egungun	-8109
▁kúlẹ̀kúlẹ̀	-8110
tian	-8111
▁ìṣí	-8112
gbóná	-8113
▁Ayọ̀	-8114
▁Look	-8115
▁French	-8116
▁Kérésì	-8117
▁sunwọ̀n	-8118
▁discovered	-8119
▁38	-8120
▁Pí	-8121
▁29,	-8122
▁awọ	-8123
▁pam	-8124
▁Míkà	-8125
▁ṣàrà	-8126
▁dwelling	-8127
▁Israelite	-8128
▁rulership	-8129
aph	-8130
nia	-8131
ott	-8132
▁Ṣá	-8133
mits	-8134
▁cat	-8135
▁tut	-8136
pping	-8137
▁Levi	-8138
▁tuni	-8139
▁reass	-8140
lection	-8141
▁announ	-8142
▁Ìmọ̀ràn	-8143
ńdí	-8144
▁Dé	-8145
▁“‘	-8146
kiel	-8147
ented	-8148
▁Year	-8149
asters	-8150
zekiah	-8151
▁Aláṣẹ	-8152
kúfẹ̀ẹ́	-8153
▁láìjẹ́	-8154
▁lómìnira	-8155
▁ep	-8156
riwo	-8157
ILẸ̀KỌ	-8158
kọ́kọ́	-8159
rinrin	-8160
▁worse	-8161
▁hatred	-8162
▁Ezekiel	-8163
▁ÀPILẸ̀KỌ	-8164
▁injustice	-8165
lock	-8166
▁Give	-8167
olongo	-8168
▁evang	-8169
▁gbájú	-8170
▁fúngbà	-8171
▁Hezekiah	-8172
ulg	-8173
▁AL	-8174
▁dar	-8175
▁lílọ	-8176
hether	-8177
▁Could	-8178
▁ended	-8179
▁greed	-8180
▁kálẹ̀	-8181
▁African	-8182
▁granted	-8183
▁healthy	-8184
▁ṣèbẹ̀wò	-8185
▁Likewise	-8186
▁lọ́kùnrin	-8187
▁reference	-8188
Mi	-8189
▁Rá	-8190
Your	-8191
▁Jónà	-8192
▁dust	-8193
▁Assyri	-8194
▁Follow	-8195
▁kánrin	-8196
▁moving	-8197
▁Òtítọ́	-8198
▁ìmọrírì	-8199
▁brethren	-8200
▁oníṣègùn	-8201
▁rẹ̀wẹ̀sì	-8202
▁ọmọlúwàbí	-8203
▁undeserved	-8204
mẹ̀	-8205
▁gà	-8206
làlà	-8207
▁oblig	-8208
▁ẹ̀jẹ́	-8209
▁Òǹkàwé	-8210
▁resolve	-8211
▁dealings	-8212
▁Lákọ̀ọ́kọ́	-8213
▁entertainment	-8214
ama	-8215
▁pó	-8216
▁ṣa	-8217
ract	-8218
balẹ̀	-8219
▁flee	-8220
▁Farisí	-8221
▁Téèyàn	-8222
▁Ọgbọ́n	-8223
▁details	-8224
▁kẹ́gbẹ́	-8225
▁recently	-8226
▁scriptures	-8227
▁1;	-8228
▁KÓ	-8229
▁Hit	-8230
▁Ric	-8231
▁ìjá	-8232
▁forn	-8233
▁títa	-8234
▁éèdì	-8235
▁brief	-8236
▁domin	-8237
▁àyẹ̀wò	-8238
▁ọgọ́ta	-8239
▁Samaria	-8240
▁gbajúmọ̀	-8241
hah	-8242
itiz	-8243
▁Cal	-8244
▁skin	-8245
▁ìyàn	-8246
lẹ́tọ̀	-8247
urches	-8248
▁òdòdó	-8249
▁Having	-8250
▁Health	-8251
▁kindly	-8252
▁sinful	-8253
▁Russell	-8254
▁ìgbéraga	-8255
lẹ́tọ̀ọ́sí	-8256
IF	-8257
sm	-8258
bing	-8259
hábù	-8260
▁Pal	-8261
▁Pil	-8262
náánì	-8263
▁Díẹ̀	-8264
▁gbédè	-8265
▁pregn	-8266
▁Lọ́pọ̀	-8267
▁beauty	-8268
▁fẹ̀sùn	-8269
▁higher	-8270
▁kìnnìún	-8271
▁contribute	-8272
▁indefinite	-8273
Àwa	-8274
▁Sy	-8275
reen	-8276
going	-8277
▁Kọ́r	-8278
▁Ìmọ̀	-8279
ealous	-8280
▁Relig	-8281
▁burnt	-8282
▁ológo	-8283
▁reign	-8284
▁sídìí	-8285
▁òṣèlú	-8286
▁burned	-8287
▁Kénáánì	-8288
▁Lákòókò	-8289
▁construction	-8290
ls	-8291
Wọ́n	-8292
▁Get	-8293
▁deg	-8294
▁àdà	-8295
uting	-8296
▁Asia	-8297
▁Gíga	-8298
▁igbe	-8299
▁gbóná	-8300
▁tipẹ́	-8301
▁èkejì	-8302
▁òṣùpá	-8303
▁àpáàdì	-8304
▁Pharisees	-8305
▁beneficial	-8306
oms	-8307
▁tín	-8308
kálẹ̀	-8309
▁inno	-8310
▁grief	-8311
▁aráàlú	-8312
▁àtọ̀run	-8313
▁mọ́gbọ́n	-8314
▁separate	-8315
▁indicated	-8316
Ta	-8317
?""	-8318
inc	-8319
live	-8320
▁Dep	-8321
dẹ́nì	-8322
▁rock	-8323
jọ́sìn	-8324
▁fóònù	-8325
▁Édẹ́nì	-8326
▁declare	-8327
▁developing	-8328
hẹ́	-8329
▁Pá	-8330
▁bow	-8331
▁léè	-8332
▁swe	-8333
lọ̀tẹ̀	-8334
sọ̀rọ̀	-8335
▁Genti	-8336
▁Halls	-8337
▁excell	-8338
▁outstanding	-8339
rem	-8340
▁fer	-8341
kòkòrò	-8342
▁Oúnjẹ	-8343
▁olúwa	-8344
▁ṣọ̀kan	-8345
▁clothing	-8346
▁determine	-8347
▁Bal	-8348
▁rob	-8349
▁mutí	-8350
▁Jonah	-8351
▁damage	-8352
▁níṣọ̀kan	-8353
pí	-8354
▁Mor	-8355
▁dún	-8356
▁Fífi	-8357
▁tool	-8358
orough	-8359
▁Ọ̀ràn	-8360
▁Luther	-8361
▁season	-8362
▁population	-8363
▁ìyàsímímọ́	-8364
UD	-8365
via	-8366
endom	-8367
▁Sárà	-8368
▁àìpé	-8369
▁arose	-8370
▁signs	-8371
▁kàyéfì	-8372
▁lóbìnrin	-8373
▁Christendom	-8374
gs	-8375
▁ce	-8376
▁Àà	-8377
òfin	-8378
▁sti	-8379
▁Hann	-8380
▁làwa	-8381
▁nípò	-8382
▁wíwà	-8383
▁gbèjà	-8384
▁rules	-8385
ections	-8386
▁ibùgbé	-8387
▁ìgbọ̀n	-8388
gbéyẹ̀wò	-8389
▁tààràtà	-8390
▁wíwàásù	-8391
▁dáradára	-8392
▁hospital	-8393
▁sickness	-8394
▁Philistines	-8395
ERS	-8396
aki	-8397
war	-8398
gẹ́d	-8399
▁Asa	-8400
sàájú	-8401
ọ̀sẹ̀	-8402
rustra	-8403
▁oríṣi	-8404
▁ìdajì	-8405
▁figura	-8406
▁skills	-8407
▁Ṣàlàyé	-8408
gẹ́dọ́nì	-8409
▁Explain	-8410
▁primary	-8411
▁survive	-8412
▁Nehemiah	-8413
but	-8414
sing	-8415
with	-8416
▁eth	-8417
▁fem	-8418
▁iyì	-8419
▁119:	-8420
▁vast	-8421
▁Surely	-8422
▁highly	-8423
▁lórúkọ	-8424
▁calling	-8425
▁concerns	-8426
▁treasure	-8427
pair	-8428
▁deaf	-8429
▁arise	-8430
▁heads	-8431
▁ìjìyà	-8432
▁ìlọ́po	-8433
lication	-8434
▁applying	-8435
▁identify	-8436
▁mistakes	-8437
▁satisfying	-8438
cis	-8439
▁SÍ	-8440
▁Ant	-8441
▁fàlàlà	-8442
▁fearing	-8443
▁soldiers	-8444
ọ́nilẹ́kọ̀ọ́	-8445
▁requirements	-8446
mùú	-8447
▁Lefi	-8448
ability	-8449
▁bodies	-8450
▁sáàárín	-8451
▁Students	-8452
▁willingly	-8453
▁Sil	-8454
▁Kókó	-8455
▁beat	-8456
▁keje	-8457
▁kíkó	-8458
▁suic	-8459
▁broke	-8460
▁storm	-8461
▁twenty	-8462
sọ̀ọ̀sẹ̀	-8463
▁consist	-8464
▁ọlọ̀tẹ̀	-8465
▁ọ̀làwọ́	-8466
▁disaster	-8467
▁Sometimes	-8468
▁provisions	-8469
▁ẹ̀kúnrẹ́rẹ́	-8470
AY	-8471
Kì	-8472
ẹrú	-8473
▁Tit	-8474
▁sty	-8475
obedi	-8476
▁calm	-8477
▁Herod	-8478
▁terri	-8479
▁access	-8480
▁background	-8481
gì	-8482
Ọ́N	-8483
úùfù	-8484
ologi	-8485
tayọ̀	-8486
▁Násì	-8487
▁Wòlíì	-8488
▁rights	-8489
▁couples	-8490
▁directly	-8491
▁opposite	-8492
▁Ìsíkíẹ́lì	-8493
▁connection	-8494
▁conventions	-8495
▁governments	-8496
lot	-8497
poc	-8498
▁AS	-8499
▁FÚN	-8500
▁Ill	-8501
▁tìẹ	-8502
ively	-8503
▁Kíró	-8504
▁crus	-8505
▁ẹ̀bi	-8506
estern	-8507
▁cruel	-8508
▁joyful	-8509
▁Nehemáyà	-8510
▁ministers	-8511
▁spirituality	-8512
àà	-8513
hem	-8514
▁Ac	-8515
láti	-8516
estiv	-8517
▁Baal	-8518
▁Esau	-8519
▁audi	-8520
▁leng	-8521
▁task	-8522
lesome	-8523
▁Sadly	-8524
▁adult	-8525
▁ìtìjú	-8526
▁Mosaic	-8527
▁behold	-8528
▁cooper	-8529
▁writes	-8530
▁covered	-8531
▁distrib	-8532
▁emphasi	-8533
▁pointed	-8534
▁díẹ̀díẹ̀	-8535
▁léraléra	-8536
▁mọ̀ọ́mọ̀	-8537
lélọ́gbọ̀n	-8538
▁rebellion	-8539
káyà	-8540
ware	-8541
▁Arm	-8542
▁corn	-8543
pected	-8544
▁testi	-8545
▁handle	-8546
▁tọ́rọ̀	-8547
▁frustra	-8548
▁recalls	-8549
▁àyípadà	-8550
▁carrying	-8551
▁imprison	-8552
▁àìlẹ́tọ̀ọ́sí	-8553
▁SỌ	-8554
aker	-8555
Every	-8556
▁Says	-8557
▁Ṣíṣe	-8558
▁proud	-8559
▁tọ́mọ	-8560
▁devast	-8561
▁elimin	-8562
▁release	-8563
▁compared	-8564
▁scholars	-8565
▁90	-8566
Thus	-8567
▁Ref	-8568
▁dro	-8569
guard	-8570
usion	-8571
▁Láyé	-8572
▁Port	-8573
▁nine	-8574
▁paid	-8575
▁Báwọn	-8576
▁elect	-8577
▁phone	-8578
▁àtohun	-8579
▁anxious	-8580
▁gbẹ̀yìn	-8581
▁Almighty	-8582
▁describe	-8583
▁numerous	-8584
▁potential	-8585
▁witnessing	-8586
▁significant	-8587
▁Mé	-8588
kọ́sì	-8589
under	-8590
gọ́rin	-8591
titled	-8592
▁charge	-8593
▁copies	-8594
ictionary	-8595
▁Ly	-8596
aled	-8597
rorò	-8598
ràrí	-8599
4,000	-8600
ọ́ọ̀tì	-8601
▁acted	-8602
▁serves	-8603
ayọ̀tayọ̀	-8604
▁mẹ́ẹ̀ẹ́dọ́gbọ̀n	-8605
atic	-8606
▁24;	-8607
salom	-8608
▁ìṣọ́	-8609
gbẹ́yọ̀	-8610
▁Charles	-8611
▁aláàánú	-8612
▁níbàámu	-8613
▁entitled	-8614
▁familiar	-8615
▁shepherds	-8616
book	-8617
▁Ste	-8618
▁hot	-8619
▁Ámó	-8620
▁fund	-8621
▁grie	-8622
ements	-8623
verage	-8624
▁habit	-8625
▁crimin	-8626
▁Philippines	-8627
▁gbédègbẹ́yọ̀	-8628
haz	-8629
acked	-8630
gọ́ta	-8631
▁forg	-8632
▁quit	-8633
▁ẹ̀wù	-8634
▁Gúúsù	-8635
▁River	-8636
▁plain	-8637
▁unable	-8638
▁bílíọ̀nù	-8639
▁introduc	-8640
▁meditate	-8641
god	-8642
iter	-8643
parí	-8644
▁33:	-8645
▁ejò	-8646
▁Níbi	-8647
▁dójú	-8648
▁wars	-8649
▁terms	-8650
▁ìmúra	-8651
ageddon	-8652
▁temper	-8653
▁Àgùntàn	-8654
▁sọ̀kalẹ̀	-8655
▁lẹ́ẹ̀kọ̀ọ̀kan	-8656
DE	-8657
hib	-8658
▁80	-8659
▁Dà	-8660
▁arm	-8661
▁Ẹsẹ	-8662
while	-8663
▁pani	-8664
▁grasp	-8665
▁stead	-8666
▁Àpéjọ	-8667
▁Aaroni	-8668
▁happens	-8669
▁possession	-8670
ENT	-8671
!"""	-8672
rass	-8673
▁27,	-8674
thern	-8675
▁Pent	-8676
▁sáyé	-8677
▁gbéjà	-8678
▁offers	-8679
▁culture	-8680
▁Ìkẹ́kọ̀ọ́	-8681
▁determination	-8682
Tí	-8683
▁Ire	-8684
▁Sekar	-8685
lẹ́ńkẹ́	-8686
▁clergy	-8687
▁modest	-8688
▁stones	-8689
▁private	-8690
▁considering	-8691
old	-8692
airs	-8693
▁500	-8694
▁65:	-8695
rance	-8696
ìkejì	-8697
▁rírẹ	-8698
ulties	-8699
ṣòdodo	-8700
▁adults	-8701
▁concent	-8702
▁brochure	-8703
NÚ	-8704
ode	-8705
ínà	-8706
▁53	-8707
ivil	-8708
kíbi	-8709
▁tor	-8710
▁exal	-8711
▁Ammon	-8712
▁Latin	-8713
▁gbọ̀n	-8714
▁Agbára	-8715
▁Absalom	-8716
▁discoura	-8717
▁evangeli	-8718
▁prophetic	-8719
▁attendance	-8720
jan	-8721
▁iṣ	-8722
bìlì	-8723
▁Mel	-8724
▁Pas	-8725
▁doc	-8726
▁urg	-8727
ádọ́ta	-8728
▁títẹ̀	-8729
▁images	-8730
▁lẹ́gbẹ́	-8731
▁writings	-8732
AH	-8733
▁Ah	-8734
chae	-8735
▁dòní	-8736
▁citiz	-8737
▁ìgbọ́	-8738
▁Second	-8739
▁forced	-8740
▁mẹ́tàlá	-8741
▁adultery	-8742
▁churches	-8743
▁ìdálẹ́kọ̀ọ́	-8744
▁$	-8745
had	-8746
▁gá	-8747
▁Amá	-8748
▁abo	-8749
▁fil	-8750
owing	-8751
▁enth	-8752
▁olóò	-8753
▁síta	-8754
▁ṣèwà	-8755
▁quiet	-8756
▁shame	-8757
▁ẹ̀gbẹ́	-8758
▁ọjọ́un	-8759
▁ibòmíràn	-8760
▁peaceful	-8761
▁Àkọsílẹ̀	-8762
▁resources	-8763
▁additional	-8764
▁ọgọ́rọ̀ọ̀rún	-8765
EW	-8766
▁ÌT	-8767
miss	-8768
▁pọ́	-8769
▁syn	-8770
paign	-8771
▁ṣíṣà	-8772
▁breat	-8773
▁mọ́kànlá	-8774
▁relationships	-8775
bàge	-8776
▁Lot	-8777
mùúṣẹ	-8778
utral	-8779
Ọ̀pọ̀	-8780
▁Anti	-8781
▁ears	-8782
▁resc	-8783
▁ṣòfò	-8784
bàgebè	-8785
▁Ìrètí	-8786
▁center	-8787
▁standard	-8788
▁multitude	-8789
▁ṣàìgbọràn	-8790
▁comforting	-8791
▁physically	-8792
bùú	-8793
orò	-8794
▁Out	-8795
oting	-8796
oòrùn	-8797
▁fani	-8798
▁lips	-8799
▁surf	-8800
▁depart	-8801
▁occasions	-8802
lin	-8803
text	-8804
▁desp	-8805
ounded	-8806
▁Italy	-8807
▁pọkàn	-8808
▁river	-8809
▁kálukú	-8810
▁nearby	-8811
▁causing	-8812
▁ilẹ̀kùn	-8813
▁endeavor	-8814
▁ìmọ̀lára	-8815
▁development	-8816
áríà	-8817
bẹ́lì	-8818
jókòó	-8819
▁comf	-8820
▁fled	-8821
▁Benin	-8822
▁Table	-8823
▁gbáko	-8824
▁hosts	-8825
▁láàmú	-8826
▁ìkóra	-8827
▁Babeli	-8828
▁Elisha	-8829
▁finding	-8830
▁reminded	-8831
▁firstborn	-8832
▁inhabited	-8833
Bó	-8834
OS	-8835
ela	-8836
oli	-8837
voc	-8838
kiwà	-8839
rama	-8840
.""'"	-8841
kẹsẹ̀	-8842
▁Cong	-8843
▁ọ̀sìn	-8844
▁played	-8845
▁refuse	-8846
▁tribes	-8847
▁Nations	-8848
▁Samáríà	-8849
▁Whether	-8850
ses	-8851
▁Vol	-8852
▁Way	-8853
árale	-8854
àgùntàn	-8855
ádọ́rùn	-8856
▁dárúkọ	-8857
▁ẹ̀tanú	-8858
▁Britain	-8859
▁anymore	-8860
▁mẹ́rìnlá	-8861
▁surprise	-8862
▁thorough	-8863
▁magazines	-8864
▁Àf	-8865
uish	-8866
uous	-8867
▁Nab	-8868
ciful	-8869
▁oyin	-8870
▁reap	-8871
▁star	-8872
hariah	-8873
▁birds	-8874
▁ought	-8875
▁Hannah	-8876
▁prejud	-8877
▁secure	-8878
▁tùràrí	-8879
▁wrongdo	-8880
▁miracles	-8881
▁Christmas	-8882
▁successfully	-8883
ov	-8884
ena	-8885
ìnà	-8886
Báwo	-8887
▁Sún	-8888
jùmọ̀	-8889
ṣẹ̀ẹ́	-8890
▁ààlà	-8891
ànìyàn	-8892
▁òtútù	-8893
echariah	-8894
▁replied	-8895
▁majority	-8896
▁instructions	-8897
By	-8898
▁Nic	-8899
▁empt	-8900
▁hospit	-8901
▁lẹ́wọ̀n	-8902
ock	-8903
▁44	-8904
▁ON	-8905
▁rì	-8906
lágà	-8907
ìfẹ́	-8908
atter	-8909
▁payá	-8910
▁COVER	-8911
▁cried	-8912
▁níṣẹ́	-8913
▁worthy	-8914
▁nímùúṣẹ	-8915
▁variety	-8916
▁nísinsin	-8917
▁ṣàkíyèsí	-8918
▁Zechariah	-8919
▁Síbẹ̀síbẹ̀	-8920
▁challenging	-8921
▁ìfẹ́kúfẹ̀ẹ́	-8922
▁accomplished	-8923
▁(1	-8924
burg	-8925
▁dig	-8926
tẹ̀ẹ̀	-8927
▁awak	-8928
▁hell	-8929
▁ogbó	-8930
▁tóní	-8931
▁Ìpara	-8932
▁Answer	-8933
▁Josiah	-8934
▁agreed	-8935
▁caught	-8936
▁exists	-8937
▁kọ́wọ́	-8938
▁finished	-8939
▁remarkable	-8940
▁appreciated	-8941
OL	-8942
▁Kú	-8943
tish	-8944
wàdà	-8945
▁34,	-8946
▁44.	-8947
▁Gbí	-8948
▁lad	-8949
▁root	-8950
▁jẹ́wọ́	-8951
▁America	-8952
▁achieve	-8953
▁oníwàásù	-8954
▁ọmọnìkejì	-8955
iny	-8956
érò	-8957
ìsì	-8958
▁nà	-8959
arit	-8960
▁Pra	-8961
▁aut	-8962
▁fọ̀	-8963
▁kóo	-8964
▁boys	-8965
▁cold	-8966
▁sett	-8967
▁greet	-8968
▁ṣàánú	-8969
▁ìyọ́nú	-8970
▁ṣọ̀tẹ̀	-8971
▁commend	-8972
▁balanced	-8973
▁rendered	-8974
ny	-8975
▁Ak	-8976
▁20;	-8977
▁Dam	-8978
▁òrù	-8979
▁Ibẹ̀	-8980
▁amọ̀	-8981
▁bíbí	-8982
▁drun	-8983
▁iron	-8984
▁ruin	-8985
▁jẹ̀bi	-8986
▁reput	-8987
tẹ̀ẹ̀ta	-8988
▁aspect	-8989
▁career	-8990
▁ṣọ̀fọ̀	-8991
ronicles	-8992
▁seventh	-8993
▁privileges	-8994
▁Amágẹ́dọ́nì	-8995
enni	-8996
fety	-8997
hard	-8998
norr	-8999
▁tójú	-9000
▁Flood	-9001
▁Knorr	-9002
▁adoles	-9003
▁tẹ́tẹ́	-9004
Therefore	-9005
▁reaction	-9006
▁Ìparapọ̀	-9007
▁officials	-9008
▁mẹ́tẹ̀ẹ̀ta	-9009
sc	-9010
rena	-9011
▁cub	-9012
jẹ̀ẹ́	-9013
kọ́lé	-9014
▁Ìpín	-9015
▁drama	-9016
▁stars	-9017
▁Friend	-9018
▁látorí	-9019
▁market	-9020
ointment	-9021
▁intense	-9022
▁níléèwé	-9023
▁administ	-9024
▁solution	-9025
▁visiting	-9026
ńgó	-9027
▁BE	-9028
▁Pu	-9029
mate	-9030
▁21;	-9031
▁AYÉ	-9032
sover	-9033
▁Zion	-9034
▁post	-9035
▁Ìbùkún	-9036
▁lọ́mọdé	-9037
▁removed	-9038
▁ìrọ̀lẹ́	-9039
▁Passover	-9040
▁surprised	-9041
▁Armageddon	-9042
▁worshipers	-9043
álẹ̀	-9044
▁Cam	-9045
ession	-9046
▁allows	-9047
▁European	-9048
▁Republic	-9049
▁campaign	-9050
▁disobedi	-9051
▁conscious	-9052
▁excellent	-9053
▁approached	-9054
unt	-9055
Baba	-9056
tific	-9057
▁repl	-9058
▁Ìkún	-9059
▁Báyìí	-9060
▁yield	-9061
▁minutes	-9062
▁critical	-9063
▁traveled	-9064
▁transform	-9065
▁profession	-9066
▁unrighteous	-9067
7:	-9068
UB	-9069
.'"	-9070
ówó	-9071
▁LÈ	-9072
▁MI	-9073
▁Uk	-9074
▁ec	-9075
athy	-9076
▁búra	-9077
▁oníṣ	-9078
▁tojú	-9079
ọwọ́kọ	-9080
▁brain	-9081
▁dákẹ́	-9082
▁juwọ́	-9083
▁àgàgà	-9084
▁ẹ̀ṣọ́	-9085
▁remove	-9086
▁neutral	-9087
▁ọlọ́kàn	-9088
▁punishment	-9089
▁possessions	-9090
WÁ	-9091
GES	-9092
abu	-9093
ọ́kù	-9094
▁30,	-9095
▁Tẹ̀	-9096
▁cup	-9097
▁ẹní	-9098
▁annu	-9099
▁huge	-9100
▁àtẹ́	-9101
▁plans	-9102
▁south	-9103
▁facing	-9104
▁hidden	-9105
▁jealous	-9106
kes	-9107
tor	-9108
▁eé	-9109
▁Eré	-9110
▁Sur	-9111
▁fiyè	-9112
▁kẹrìn	-9113
▁condemn	-9114
▁failure	-9115
▁reaching	-9116
▁ṣèṣekúṣe	-9117
▁motivated	-9118
▁pornography	-9119
?"	-9120
▁End	-9121
lùfáà	-9122
pters	-9123
▁Mean	-9124
▁Thom	-9125
▁lord	-9126
▁sowọ́	-9127
▁create	-9128
▁review	-9129
▁Kẹ́kọ̀ọ́	-9130
▁glorious	-9131
▁méjìdínlógún	-9132
FÀ	-9133
UL	-9134
IDS	-9135
▁Mu	-9136
ronú	-9137
unds	-9138
▁Cop	-9139
▁ìró	-9140
iding	-9141
bàámọ̀	-9142
▁chari	-9143
▁mọ́tò	-9144
▁bright	-9145
▁acquain	-9146
▁capital	-9147
▁harmful	-9148
▁sẹ́ẹ̀lì	-9149
▁ìmárale	-9150
▁arranged	-9151
▁provision	-9152
▁lọ́pọ̀lọpọ̀	-9153
isi	-9154
▁TI	-9155
arùn	-9156
eces	-9157
sárù	-9158
▁àdá	-9159
▁Ọkọ	-9160
fined	-9161
icted	-9162
riage	-9163
▁Jèhó	-9164
▁proof	-9165
▁stake	-9166
▁Recall	-9167
▁Russian	-9168
▁turning	-9169
▁Contents	-9170
▁pleasant	-9171
▁witnesses	-9172
sa	-9173
ọ́jú	-9174
▁pit	-9175
▁ven	-9176
▁àwo	-9177
▁ìrú	-9178
▁dign	-9179
▁Naomi	-9180
▁dishon	-9181
▁firmly	-9182
▁Sabbath	-9183
▁dangers	-9184
▁Ministry	-9185
▁Onísáàmù	-9186
▁mildness	-9187
ato	-9188
oru	-9189
esar	-9190
úgbó	-9191
enses	-9192
▁Léfì	-9193
▁equi	-9194
▁wíwo	-9195
▁ọpẹ́	-9196
▁kọsẹ̀	-9197
▁sched	-9198
▁ìsádi	-9199
▁bọ́rọ̀	-9200
▁yìnyín	-9201
▁feature	-9202
▁noticed	-9203
▁suddenly	-9204
NI	-9205
cil	-9206
key	-9207
pín	-9208
ittle	-9209
▁Prov	-9210
atures	-9211
rúgbìn	-9212
▁Visit	-9213
▁Ọ̀rẹ́	-9214
▁oníṣẹ́	-9215
▁weapons	-9216
▁qualified	-9217
▁aláìgbàgbọ́	-9218
asy	-9219
▁àbù	-9220
Olúwa	-9221
great	-9222
osity	-9223
▁Less	-9224
▁meek	-9225
▁mítà	-9226
▁desol	-9227
▁solid	-9228
▁rejoic	-9229
▁tábìlì	-9230
▁Ìjọsìn	-9231
▁independ	-9232
▁Scripture	-9233
▁companion	-9234
▁foundation	-9235
YÌN	-9236
rer	-9237
áfì	-9238
▁Héb	-9239
▁Spe	-9240
▁ìfi	-9241
jiyàn	-9242
oríko	-9243
▁Bless	-9244
▁Korea	-9245
▁Union	-9246
▁exactly	-9247
▁ìpamọ́ra	-9248
▁gratitude	-9249
▁àjẹ	-9250
rínwó	-9251
▁arms	-9252
▁fẹnu	-9253
▁rely	-9254
▁Nísin	-9255
▁Paris	-9256
▁except	-9257
▁gbígba	-9258
▁mẹ́rẹ̀	-9259
▁earthqu	-9260
▁Whatever	-9261
▁remaining	-9262
▁viewpoint	-9263
▁identified	-9264
body	-9265
órùn	-9266
▁19;	-9267
▁29:	-9268
▁ọnà	-9269
ecost	-9270
useum	-9271
▁Event	-9272
▁kẹrin	-9273
▁lálẹ́	-9274
▁perce	-9275
▁ààfin	-9276
▁ọ̀tẹ̀	-9277
▁ọ̀ṣọ́	-9278
▁ruling	-9279
▁alátakò	-9280
▁gbẹ̀san	-9281
▁mothers	-9282
▁scholar	-9283
▁ọlọgbọ́n	-9284
▁meaningful	-9285
▁mẹ́tàdínlógún	-9286
EE	-9287
▁HA	-9288
mìnà	-9289
tile	-9290
▁29;	-9291
▁Mer	-9292
dship	-9293
▁hung	-9294
gọ́rùn	-9295
ulated	-9296
▁Láìka	-9297
▁North	-9298
▁fòfin	-9299
▁encoun	-9300
▁ìfọkàn	-9301
ribution	-9302
▁Ireland	-9303
▁assures	-9304
▁hardship	-9305
▁resulted	-9306
▁àràádọ́ta	-9307
▁suggestions	-9308
sed	-9309
▁Hen	-9310
▁Mon	-9311
▁Neb	-9312
▁edi	-9313
▁jus	-9314
ilétí	-9315
▁bàtà	-9316
azarus	-9317
▁fẹ̀mí	-9318
▁gbéni	-9319
▁model	-9320
▁British	-9321
▁Àkọ́kọ́	-9322
▁abundant	-9323
▁Committee	-9324
▁Pentecost	-9325
▁abandoned	-9326
▁gradually	-9327
▁supported	-9328
▁commandment	-9329
▁Thessalonians	-9330
ison	-9331
rong	-9332
tial	-9333
vant	-9334
▁Off	-9335
▁tar	-9336
▁ìmí	-9337
ading	-9338
▁drew	-9339
amọ̀nà	-9340
▁Right	-9341
▁ibojì	-9342
▁sílùú	-9343
amental	-9344
▁stayed	-9345
▁apparently	-9346
▁fornication	-9347
RÒ	-9348
ÙN	-9349
obo	-9350
▁GB	-9351
▁PR	-9352
pọ́n	-9353
▁ram	-9354
▁Gide	-9355
▁ayọ́	-9356
leness	-9357
▁Peace	-9358
▁gbòde	-9359
▁stick	-9360
▁Aṣáájú	-9361
▁attain	-9362
▁gbígbóná	-9363
▁observes	-9364
▁NY	-9365
▁cr	-9366
asse	-9367
oman	-9368
▁22;	-9369
▁Bọ́	-9370
▁Olú	-9371
▁òwe	-9372
dààmú	-9373
▁Cain	-9374
▁Màmá	-9375
▁Àwọ̀n	-9376
▁ọ̀fọ̀	-9377
▁leader	-9378
▁vessel	-9379
▁persist	-9380
▁researc	-9381
▁chapters	-9382
▁property	-9383
▁demonstrated	-9384
▁mẹ́rìndínlógún	-9385
Olù	-9386
yán	-9387
▁43	-9388
▁Jan	-9389
▁Jul	-9390
▁Mod	-9391
▁wẹ̀	-9392
0,000	-9393
ibiri	-9394
ẹ̀rin	-9395
▁asks	-9396
▁Grand	-9397
▁civil	-9398
▁patri	-9399
▁focused	-9400
▁kábàámọ̀	-9401
òhò	-9402
onds	-9403
ǹgbò	-9404
▁Red	-9405
▁neg	-9406
▁sang	-9407
túnwọ̀n	-9408
▁burden	-9409
▁ọlọ́wọ̀	-9410
▁faithfulness	-9411
ṣé	-9412
YÀN	-9413
ola	-9414
tóní	-9415
▁Dec	-9416
▁wúwo	-9417
icient	-9418
▁dress	-9419
▁kánjú	-9420
bọ́ọ̀lù	-9421
▁ojútùú	-9422
zy	-9423
ald	-9424
gic	-9425
ilty	-9426
olute	-9427
raine	-9428
▁Inte	-9429
kẹ̀rẹ̀	-9430
▁Which	-9431
ountain	-9432
▁apẹ̀yìndà	-9433
▁reputation	-9434
▁mẹ́rẹ̀ẹ̀rin	-9435
▁difficulties	-9436
Come	-9437
bodè	-9438
bínú	-9439
kòkò	-9440
▁39.	-9441
▁scri	-9442
▁kúnjú	-9443
▁royal	-9444
▁Nether	-9445
▁female	-9446
▁idolat	-9447
▁rẹ́rìn	-9448
▁àṣekára	-9449
túnwọ̀nsì	-9450
▁transgress	-9451
▁acknowledge	-9452
urt	-9453
▁ÌGB	-9454
▁shed	-9455
arters	-9456
▁horse	-9457
▁jẹ́ẹ́	-9458
▁àtèyí	-9459
▁Assemb	-9460
▁armies	-9461
▁useful	-9462
▁Service	-9463
▁dignity	-9464
▁Àlàáfíà	-9465
▁àsọjáde	-9466
▁ṣèdájọ́	-9467
▁influenced	-9468
Ch	-9469
▁ul	-9470
▁31,	-9471
▁Odò	-9472
cking	-9473
ekiah	-9474
▁Fore	-9475
▁ìbọn	-9476
▁Judea	-9477
▁techn	-9478
▁ìyọnu	-9479
▁victim	-9480
▁òpìtàn	-9481
▁Níkẹyìn	-9482
▁divided	-9483
▁methods	-9484
▁sinners	-9485
▁writers	-9486
▁diseases	-9487
▁tinútinú	-9488
▁otherwise	-9489
ǹdè	-9490
ṣeé	-9491
▁28;	-9492
▁Del	-9493
▁àmú	-9494
▁Hánà	-9495
▁kíka	-9496
▁moon	-9497
▁pill	-9498
▁sóde	-9499
▁Often	-9500
▁deser	-9501
▁souls	-9502
▁Èlíṣà	-9503
▁Lọ́ọ̀tì	-9504
▁suicide	-9505
▁onídàájọ́	-9506
▁persecuted	-9507
▁thereafter	-9508
VE	-9509
ila	-9510
▁Jẹ	-9511
nant	-9512
▁Emp	-9513
▁Lib	-9514
nilétí	-9515
▁photo	-9516
bọ̀rìṣà	-9517
▁factor	-9518
▁corruption	-9519
fast	-9520
▁FOR	-9521
▁agre	-9522
▁Short	-9523
▁délẹ̀	-9524
▁feast	-9525
▁steal	-9526
hìnrere	-9527
▁ignore	-9528
▁Stephen	-9529
▁afterward	-9530
EH	-9531
bán	-9532
▁Sì	-9533
kánjú	-9534
▁pron	-9535
▁rede	-9536
▁Àrùn	-9537
▁Granted	-9538
▁fọgbọ́n	-9539
▁project	-9540
▁Benjamin	-9541
▁aláìlera	-9542
▁properly	-9543
▁services	-9544
▁accompany	-9545
▁marvelous	-9546
▁satisfied	-9547
▁courageous	-9548
ime	-9549
ǹtí	-9550
cess	-9551
pper	-9552
▁oyè	-9553
▁ṣàn	-9554
ganda	-9555
▁rírí	-9556
father	-9557
▁Sílẹ̀	-9558
▁Truth	-9559
▁pamọ́	-9560
▁àìtọ́	-9561
▁Pẹ́ńtí	-9562
▁aláìmọ́	-9563
▁holding	-9564
▁prevail	-9565
▁routine	-9566
▁Promised	-9567
▁Sekaráyà	-9568
▁Sovereign	-9569
▁associate	-9570
▁encourages	-9571
iqu	-9572
ita	-9573
iles	-9574
▁30:	-9575
▁38.	-9576
▁Bes	-9577
▁Hag	-9578
▁dry	-9579
▁NÍNÚ	-9580
▁abus	-9581
▁2001,	-9582
▁fọ́tò	-9583
▁invis	-9584
▁jiyàn	-9585
▁worry	-9586
▁àyàfi	-9587
▁adájọ́	-9588
▁etíkun	-9589
▁supply	-9590
▁belongs	-9591
▁printed	-9592
▁audience	-9593
▁restored	-9594
▁Eventually	-9595
▁employment	-9596
▁ṣàgbéyẹ̀wò	-9597
▁discouraged	-9598
▁Fa	-9599
aven	-9600
jòyè	-9601
rary	-9602
▁Nàì	-9603
▁lóò	-9604
▁pupa	-9605
▁tort	-9606
▁trip	-9607
▁ààyè	-9608
lẹ̀kùn	-9609
▁palẹ̀	-9610
▁ṣègbé	-9611
▁invite	-9612
▁Gospels	-9613
▁Májẹ̀mú	-9614
▁billion	-9615
▁arrested	-9616
▁completed	-9617
▁Netherlands	-9618
▁Pẹ́ńtíkọ́sì	-9619
asi	-9620
wàní	-9621
▁fla	-9622
ianic	-9623
rehen	-9624
▁AIDS	-9625
▁forb	-9626
▁karí	-9627
▁2000,	-9628
▁Colum	-9629
▁fínra	-9630
▁poured	-9631
▁títóbi	-9632
▁darúgbó	-9633
▁located	-9634
▁conducted	-9635
▁volunteers	-9636
hand	-9637
resh	-9638
ńdíá	-9639
▁Any	-9640
▁rac	-9641
ulate	-9642
▁bore	-9643
▁tear	-9644
lessly	-9645
paring	-9646
▁góńgó	-9647
▁144,000	-9648
▁aláìlẹ́	-9649
▁gbọ́rọ̀	-9650
▁gbọ̀ngàn	-9651
▁àjàkálẹ̀	-9652
▁Messianic	-9653
▁reflected	-9654
▁olùrànlọ́wọ́	-9655
zzar	-9656
▁37.	-9657
▁oró	-9658
▁tak	-9659
▁Ahab	-9660
▁Cali	-9661
▁fèrè	-9662
▁shar	-9663
ensive	-9664
▁faces	-9665
▁harsh	-9666
▁ìfẹ́ni	-9667
▁Galilee	-9668
▁Worship	-9669
▁opinion	-9670
▁spirits	-9671
▁Solomoni	-9672
▁pictures	-9673
pse	-9674
ànù	-9675
▁TV	-9676
▁pò	-9677
gbùn	-9678
room	-9679
stan	-9680
▁Old	-9681
▁Rac	-9682
▁tex	-9683
▁lóṣù	-9684
▁Doing	-9685
▁begins	-9686
▁restore	-9687
▁district	-9688
kín	-9689
sín	-9690
elled	-9691
hamed	-9692
jagun	-9693
ọ́kan	-9694
▁Upon	-9695
▁Kéènì	-9696
▁empty	-9697
▁fields	-9698
▁Ìwàásù	-9699
▁victory	-9700
▁calamity	-9701
▁medicine	-9702
▁wondered	-9703
nic	-9704
▁Én	-9705
ycle	-9706
▁Gbó	-9707
▁Lou	-9708
▁obj	-9709
▁Àbá	-9710
itzer	-9711
▁dórí	-9712
▁fors	-9713
▁fòye	-9714
▁obst	-9715
▁prov	-9716
irable	-9717
▁below	-9718
▁lẹ́wà	-9719
▁lọ́kọ	-9720
▁walls	-9721
▁yááfì	-9722
▁ìyókù	-9723
▁expand	-9724
▁pieces	-9725
▁safety	-9726
▁parable	-9727
▁readily	-9728
▁Assembly	-9729
▁instructed	-9730
▁repeatedly	-9731
▁ọ̀jọ̀gbọ́n	-9732
▁represented	-9733
▁alábàákẹ́gbẹ́	-9734
èsè	-9735
▁Yá	-9736
iria	-9737
▁Hab	-9738
▁kín	-9739
▁vig	-9740
place	-9741
▁Indi	-9742
▁dáná	-9743
▁Ephra	-9744
▁ungod	-9745
▁lẹ́jọ́	-9746
▁ọ̀gbìn	-9747
▁complex	-9748
▁trusted	-9749
▁Ọ̀mọ̀wé	-9750
▁identity	-9751
▁invisible	-9752
lear	-9753
▁55:	-9754
▁Ìyá	-9755
▁ìkẹ	-9756
bàjẹ́	-9757
▁Name	-9758
▁yani	-9759
▁deleg	-9760
▁pagan	-9761
▁àkóso	-9762
▁àárẹ̀	-9763
ṣọ́ọ̀bù	-9764
▁Lásárù	-9765
expected	-9766
▁affairs	-9767
▁customs	-9768
▁begotten	-9769
▁innocent	-9770
▁tónítóní	-9771
▁preceding	-9772
▁reasoning	-9773
▁brotherhood	-9774
LỌ́	-9775
▁Bi	-9776
▁Mò	-9777
▁wẹ	-9778
onia	-9779
agers	-9780
▁eyín	-9781
▁2,000	-9782
▁Human	-9783
▁Jùdíà	-9784
▁iniqu	-9785
▁Ìwòye	-9786
ṣòtítọ́	-9787
▁ibòmíì	-9788
▁ẹ̀fúùfù	-9789
▁ìgbọ̀nwọ́	-9790
▁translations	-9791
At	-9792
Happ	-9793
anta	-9794
jẹrẹ	-9795
resp	-9796
▁Ọlọ	-9797
ọ́dún	-9798
▁Trin	-9799
▁sell	-9800
▁looks	-9801
▁balance	-9802
▁Columbia	-9803
▁merciful	-9804
▁attitudes	-9805
▁agbábọ́ọ̀lù	-9806
WỌ́	-9807
omen	-9808
▁Ann	-9809
▁Pan	-9810
▁net	-9811
▁squ	-9812
▁sus	-9813
▁Ábí	-9814
gical	-9815
▁dies	-9816
▁dúdú	-9817
▁sout	-9818
fornia	-9819
▁Jehoi	-9820
▁awake	-9821
▁ìjòyè	-9822
oration	-9823
wàníhìn	-9824
▁Kéèyàn	-9825
▁fallen	-9826
▁unless	-9827
▁Ènìyàn	-9828
▁attempt	-9829
▁olùdarí	-9830
▁science	-9831
▁referring	-9832
▁California	-9833
▁perfection	-9834
EM	-9835
kíá	-9836
ọnà	-9837
▁ox	-9838
hern	-9839
▁Bap	-9840
▁òwò	-9841
arrow	-9842
délẹ̀	-9843
jìnnì	-9844
▁rare	-9845
liness	-9846
▁láìfi	-9847
▁toler	-9848
▁border	-9849
▁murder	-9850
▁terror	-9851
▁impress	-9852
▁passing	-9853
alẹ̀pìtàn	-9854
mo	-9855
za	-9856
esí	-9857
inì	-9858
who	-9859
▁Ol	-9860
arer	-9861
holo	-9862
koko	-9863
mìjí	-9864
ogra	-9865
asseh	-9866
kànlé	-9867
▁Draw	-9868
▁check	-9869
▁grave	-9870
▁multi	-9871
▁stret	-9872
▁ìṣeré	-9873
▁ṣohun	-9874
▁Hitler	-9875
▁purcha	-9876
▁Àlùfáà	-9877
▁lifesty	-9878
▁Kíróníkà	-9879
▁computer	-9880
▁constant	-9881
▁ojúsàájú	-9882
▁ayọ́kẹ́lẹ́	-9883
▁figurative	-9884
▁communicate	-9885
IG	-9886
aiah	-9887
rónì	-9888
ọ́tò	-9889
▁ìké	-9890
▁òjì	-9891
búlẹ̀	-9892
▁defe	-9893
▁egbò	-9894
▁ààtò	-9895
▁accus	-9896
▁Ẹ̀yìn	-9897
▁koríko	-9898
▁kẹ́lẹ́	-9899
▁Congreg	-9900
▁attacks	-9901
▁rightly	-9902
▁slavery	-9903
▁speaker	-9904
▁suggest	-9905
▁Gentiles	-9906
▁Manasseh	-9907
▁watching	-9908
▁Onídàájọ́	-9909
▁assignments	-9910
des	-9911
ásì	-9912
▁wi	-9913
▁Ṣẹ	-9914
hamu	-9915
arant	-9916
▁2011	-9917
▁Abel	-9918
▁Dára	-9919
▁Find	-9920
▁Need	-9921
▁jùlọ	-9922
▁mail	-9923
▁union	-9924
▁Olùkọ́	-9925
▁incense	-9926
▁ọgọ́rin	-9927
▁profound	-9928
▁involving	-9929
▁conviction	-9930
▁scientists	-9931
bek	-9932
isc	-9933
▁FR	-9934
ògùn	-9935
▁yán	-9936
Happy	-9937
▁THIS	-9938
▁sójà	-9939
▁Ìṣẹ̀	-9940
istini	-9941
worthy	-9942
▁embra	-9943
osition	-9944
▁acting	-9945
▁festiv	-9946
▁lójijì	-9947
▁memory	-9948
▁Énọ́kù	-9949
▁choices	-9950
▁Onírúurú	-9951
▁pursuing	-9952
▁Filistini	-9953
▁Chronicles	-9954
On	-9955
▁Ram	-9956
Where	-9957
Ọ̀rọ̀	-9958
▁aged	-9959
▁cere	-9960
▁kété	-9961
▁tomb	-9962
▁ṣalá	-9963
change	-9964
oríkọ́	-9965
▁Dáhùn	-9966
▁Látìn	-9967
▁scene	-9968
▁skill	-9969
▁warns	-9970
▁ṣíwọ́	-9971
▁ọ̀fẹ́	-9972
esekáyà	-9973
▁leaves	-9974
▁plague	-9975
▁bọ́ọ̀lù	-9976
▁exercising	-9977
erv	-9978
tọrẹ	-9979
▁36.	-9980
▁Cla	-9981
▁Sep	-9982
▁mob	-9983
mpili	-9984
▁Anna	-9985
▁bojú	-9986
▁coll	-9987
▁1914,	-9988
▁Náómì	-9989
▁persu	-9990
▁Jerobo	-9991
▁Martha	-9992
▁Please	-9993
▁explan	-9994
▁transf	-9995
▁virgin	-9996
▁Shortly	-9997
▁Ukraine	-9998
▁ìmọtara	-9999
▁mourning	-10000
▁kíkẹ́kọ̀ọ́	-10001
▁arrangements	-10002
TIC	-10003
▁há	-10004
agog	-10005
▁tot	-10006
kíkan	-10007
▁2012	-10008
▁aṣẹ́	-10009
▁host	-10010
▁lion	-10011
elcome	-10012
▁Close	-10013
▁manus	-10014
▁video	-10015
isọ̀rọ̀	-10016
▁Pilate	-10017
▁accord	-10018
▁fourth	-10019
▁Lazarus	-10020
▁Protest	-10021
▁burning	-10022
▁Hesekáyà	-10023
▁reliable	-10024
▁temporary	-10025
▁ìtẹ̀síwájú	-10026
aya	-10027
itar	-10028
sókè	-10029
▁Rev	-10030
▁ìkù	-10031
▁Arch	-10032
▁debt	-10033
▁imag	-10034
▁létò	-10035
▁síbì	-10036
▁síni	-10037
marily	-10038
▁1999,	-10039
▁Àárín	-10040
▁famine	-10041
▁regret	-10042
▁Nípasẹ̀	-10043
▁doctors	-10044
▁sitting	-10045
▁allowing	-10046
▁generous	-10047
▁assurance	-10048
▁ṣètìlẹ́yìn	-10049
Al	-10050
ẹfu	-10051
▁Pọ̀	-10052
▁Tur	-10053
tious	-10054
▁idols	-10055
▁Thomas	-10056
▁impact	-10057
▁judges	-10058
▁visits	-10059
▁èyíinì	-10060
▁Convention	-10061
▁television	-10062
▁Kẹ	-10063
▁Joel	-10064
▁ÌGBÉ	-10065
kẹ́tẹ́	-10066
▁Enoch	-10067
▁káàdì	-10068
▁chance	-10069
▁degree	-10070
▁finish	-10071
▁jẹjẹrẹ	-10072
talọ́kan	-10073
yànjiyàn	-10074
▁tẹmpili	-10075
tẹ́kẹ́tẹ́	-10076
▁inclined	-10077
▁ìbọ̀rìṣà	-10078
▁abilities	-10079
▁permanent	-10080
▁ọ̀dọ́bìnrin	-10081
ete	-10082
pli	-10083
ǹgbà	-10084
▁Hàn	-10085
▁Near	-10086
▁wear	-10087
Aláyọ̀	-10088
▁items	-10089
▁style	-10090
▁cleans	-10091
▁middle	-10092
▁wisely	-10093
▁àpapọ̀	-10094
▁average	-10095
▁surface	-10096
▁ìwọ̀nyí	-10097
▁ṣamọ̀nà	-10098
▁distance	-10099
▁limitations	-10100
ca	-10101
ÁÀ	-10102
IST	-10103
ami	-10104
▁BY	-10105
ador	-10106
▁23;	-10107
▁Dor	-10108
▁Kar	-10109
▁Mes	-10110
▁Àrí	-10111
▁ṣán	-10112
▁lóru	-10113
▁oyún	-10114
▁ìkan	-10115
▁lowly	-10116
▁moves	-10117
▁ultim	-10118
▁àkàrà	-10119
ceptive	-10120
▁guilty	-10121
▁length	-10122
▁sorrow	-10123
lessness	-10124
▁Switzer	-10125
▁literal	-10126
▁pronoun	-10127
▁stories	-10128
▁tempted	-10129
▁òṣùwọ̀n	-10130
▁admonition	-10131
▁increasing	-10132
▁Switzerland	-10133
▁Po	-10134
hànnà	-10135
kulẹ̀	-10136
tìfẹ́	-10137
▁bàbà	-10138
▁sand	-10139
▁weep	-10140
wọ̀nyí	-10141
▁liber	-10142
▁ridic	-10143
▁Josẹfu	-10144
▁Ruther	-10145
▁traits	-10146
▁àgbàlá	-10147
▁healing	-10148
▁Addition	-10149
▁jíjinlẹ̀	-10150
▁onígboyà	-10151
▁relative	-10152
▁pioneering	-10153
▁deliverance	-10154
pro	-10155
ísí	-10156
tuag	-10157
áàkì	-10158
▁Cho	-10159
▁Prof	-10160
▁puts	-10161
▁yege	-10162
▁ẹgbà	-10163
▁finds	-10164
▁reduc	-10165
▁àbùkù	-10166
▁ṣẹ̀dá	-10167
▁ẹ̀gàn	-10168
tuagint	-10169
ṣèwádìí	-10170
▁Greece	-10171
▁traged	-10172
ulations	-10173
▁estimated	-10174
▁repentance	-10175
tùn	-10176
▁41	-10177
▁Qu	-10178
ilọ́	-10179
rank	-10180
utri	-10181
yédè	-10182
▁607	-10183
▁asc	-10184
▁hes	-10185
▁pin	-10186
dágún	-10187
▁Simon	-10188
▁guilt	-10189
▁kíkan	-10190
▁ẹ̀wẹ̀	-10191
▁humbly	-10192
▁yẹ̀yẹ́	-10193
titution	-10194
▁claimed	-10195
▁ìjímìjí	-10196
▁possibly	-10197
▁displayed	-10198
▁literally	-10199
▁pressures	-10200
▁Rutherford	-10201
▁conversations	-10202
▁strengthening	-10203
201	-10204
▁42	-10205
▁Tu	-10206
EHOV	-10207
ball	-10208
màmà	-10209
sítá	-10210
▁fif	-10211
▁ètè	-10212
▁ìná	-10213
▁West	-10214
▁broad	-10215
▁fears	-10216
▁games	-10217
▁Philip	-10218
▁credit	-10219
▁object	-10220
▁ṣàṣìṣe	-10221
▁running	-10222
▁listeners	-10223
▁prisoners	-10224
▁Ọ̀jọ̀gbọ́n	-10225
KE	-10226
▁Pot	-10227
▁Òkú	-10228
▁àlé	-10229
▁gágá	-10230
▁hide	-10231
▁pour	-10232
▁tutù	-10233
ọgbọ́n	-10234
▁Death	-10235
▁error	-10236
▁ewéko	-10237
▁newly	-10238
▁wàláà	-10239
Ṣùgbọ́n	-10240
▁outcome	-10241
▁princip	-10242
▁remnant	-10243
▁ìfọ̀rọ̀	-10244
▁lovingly	-10245
▁Following	-10246
▁lifestyle	-10247
▁differences	-10248
dow	-10249
▁fó	-10250
kòwò	-10251
umble	-10252
▁Evid	-10253
▁furn	-10254
langba	-10255
▁Farao	-10256
▁Photo	-10257
▁drive	-10258
▁Person	-10259
▁paying	-10260
▁consult	-10261
▁fleshly	-10262
▁painful	-10263
▁ẹlẹ́mìí	-10264
▁northern	-10265
▁tayọ̀tayọ̀	-10266
PA	-10267
oe	-10268
eph	-10269
▁Tú	-10270
▁Tọ	-10271
With	-10272
elve	-10273
odom	-10274
xual	-10275
▁Eth	-10276
▁ìbú	-10277
salms	-10278
▁ààmì	-10279
▁ìwẹ̀	-10280
▁media	-10281
▁ìfòye	-10282
▁níṣòro	-10283
▁yípadà	-10284
▁exposed	-10285
▁gathering	-10286
▁fundamental	-10287
esus	-10288
etra	-10289
▁Bec	-10290
▁àsè	-10291
▁Nebu	-10292
▁bull	-10293
▁black	-10294
▁ìwòye	-10295
▁Prayer	-10296
▁excess	-10297
fa	-10298
alè	-10299
ctu	-10300
▁Jò	-10301
tòkè	-10302
▁HOW	-10303
▁Ind	-10304
tible	-10305
▁Amos	-10306
▁Early	-10307
▁cloud	-10308
▁hardly	-10309
▁Ephesus	-10310
▁smoking	-10311
▁forgiving	-10312
DÚN	-10313
▁Hó	-10314
▁MO	-10315
Nípa	-10316
hest	-10317
▁Exam	-10318
▁agbé	-10319
▁jọra	-10320
▁péye	-10321
▁soil	-10322
kòyédè	-10323
▁Heart	-10324
▁color	-10325
▁exten	-10326
▁stumb	-10327
▁Ẹ̀sìn	-10328
Because	-10329
▁contem	-10330
▁lovers	-10331
ọ́dúnrún	-10332
▁pleasing	-10333
▁Spiritual	-10334
bon	-10335
▁bé	-10336
kélì	-10337
lákì	-10338
▁Tím	-10339
▁Ever	-10340
▁dorí	-10341
▁mold	-10342
▁Notice	-10343
▁afọ́jú	-10344
building	-10345
▁endured	-10346
▁níkẹyìn	-10347
▁Egyptian	-10348
▁scripture	-10349
▁associates	-10350
▁ọmọdékùnrin	-10351
50	-10352
uct	-10353
▁Áá	-10354
that	-10355
▁Glo	-10356
▁Luc	-10357
Bẹ́ẹ̀	-10358
▁Edom	-10359
▁fair	-10360
▁wàrà	-10361
▁ọ̀gb	-10362
ieties	-10363
▁desper	-10364
Dájúdájú	-10365
ferences	-10366
▁corrupt	-10367
▁historian	-10368
▁prominent	-10369
▁safeguard	-10370
▁Septuagint	-10371
ker	-10372
▁Ga	-10373
▁té	-10374
Láti	-10375
rors	-10376
▁JẸ́	-10377
▁emb	-10378
KỌ̀Ọ́	-10379
uries	-10380
▁emer	-10381
▁tour	-10382
▁welf	-10383
▁ẹyin	-10384
fellow	-10385
▁PAGES	-10386
▁alert	-10387
▁ariwo	-10388
▁lòpọ̀	-10389
cerning	-10390
▁planet	-10391
▁depends	-10392
▁serpent	-10393
▁synagog	-10394
▁commands	-10395
▁intended	-10396
▁spending	-10397
▁benefited	-10398
▁ministerial	-10399
achi	-10400
iece	-10401
Ìgbà	-10402
▁109	-10403
▁fed	-10404
aying	-10405
itage	-10406
▁ends	-10407
▁rate	-10408
▁sole	-10409
gbàgbé	-10410
ughter	-10411
▁instr	-10412
▁rẹyìn	-10413
▁Ṣáájú	-10414
Ẹ́KỌ̀Ọ́	-10415
▁immort	-10416
▁láààyè	-10417
▁widely	-10418
▁àjọyọ̀	-10419
▁ìṣísẹ̀	-10420
▁òǹrorò	-10421
▁journal	-10422
▁raising	-10423
▁welfare	-10424
▁whoever	-10425
▁yàwòrán	-10426
▁garments	-10427
jẹ̀lẹ́ńkẹ́	-10428
▁contained	-10429
Nínú	-10430
fall	-10431
▁Joy	-10432
▁Map	-10433
▁Rul	-10434
mọ̀wà	-10435
ràwọ̀	-10436
▁ajẹ́	-10437
▁kẹtà	-10438
▁scro	-10439
▁bones	-10440
▁price	-10441
▁ọgbẹ́	-10442
▁Ìpinnu	-10443
▁ìdàgbà	-10444
▁ẹhànnà	-10445
tọ́mọ̀wà	-10446
▁ungodly	-10447
▁generally	-10448
▁historical	-10449
▁remembered	-10450
▁kẹ́tẹ́kẹ́tẹ́	-10451
runú	-10452
▁35:	-10453
iriti	-10454
▁Nine	-10455
▁Swed	-10456
▁decl	-10457
EHOVAH	-10458
▁Báálì	-10459
▁àkájọ	-10460
pective	-10461
▁Málákì	-10462
▁prefer	-10463
▁Ìrékọjá	-10464
▁opposers	-10465
▁patients	-10466
▁preacher	-10467
▁ìdánilẹ́kọ̀ọ́	-10468
ito	-10469
iwo	-10470
ṣua	-10471
inue	-10472
▁400	-10473
▁AND	-10474
▁Had	-10475
▁lep	-10476
▁Ìṣí	-10477
▁Òbí	-10478
▁ìwú	-10479
gọ́gù	-10480
síríà	-10481
▁fìtí	-10482
▁ìgbè	-10483
▁China	-10484
▁Sodom	-10485
▁òpópó	-10486
▁admits	-10487
▁insist	-10488
▁Áárónì	-10489
▁ashamed	-10490
▁onínúure	-10491
▁àfọwọ́kọ	-10492
▁nígbàkigbà	-10493
▁unexpected	-10494
LD	-10495
hal	-10496
ils	-10497
icit	-10498
▁Jón	-10499
▁Web	-10500
▁blo	-10501
ọ́rán	-10502
▁Gálí	-10503
▁Than	-10504
▁iṣan	-10505
▁meat	-10506
▁mine	-10507
pation	-10508
▁cells	-10509
▁texts	-10510
▁shield	-10511
▁Jónátánì	-10512
▁absolute	-10513
▁approved	-10514
▁residents	-10515
▁Dictionary	-10516
▁maintaining	-10517
St	-10518
▁Ef	-10519
▁187	-10520
▁cro	-10521
▁jàǹ	-10522
▁Show	-10523
▁gamb	-10524
itiyan	-10525
▁occup	-10526
▁songs	-10527
▁turns	-10528
▁wheat	-10529
▁Organi	-10530
▁gained	-10531
▁healed	-10532
▁pariwo	-10533
▁ògbógi	-10534
▁mọ́kàndínlógún	-10535
▁>	-10536
imá	-10537
That	-10538
cise	-10539
rich	-10540
▁Imp	-10541
▁Try	-10542
ender	-10543
phone	-10544
▁Sand	-10545
▁card	-10546
▁impl	-10547
▁inqu	-10548
▁kodò	-10549
▁Source	-10550
▁guided	-10551
▁silent	-10552
▁Malachi	-10553
▁motives	-10554
▁ordered	-10555
▁princes	-10556
▁àpéjọpọ̀	-10557
TÍ	-10558
iw	-10559
ão	-10560
ESS	-10561
▁AB	-10562
▁dw	-10563
orns	-10564
▁150	-10565
▁ORÍ	-10566
▁Pét	-10567
▁hol	-10568
inese	-10569
tipẹ́	-10570
ọ́ńbà	-10571
▁Gibe	-10572
▁áàkì	-10573
▁smoke	-10574
▁tests	-10575
▁tired	-10576
▁tẹ́ni	-10577
working	-10578
▁Gálílì	-10579
▁bàlágà	-10580
▁partner	-10581
▁rírẹlẹ̀	-10582
▁Illustra	-10583
▁obtained	-10584
▁judgments	-10585
▁discernment	-10586
▁sacrificing	-10587
ámù	-10588
▁Ze	-10589
bòsí	-10590
látù	-10591
▁Pur	-10592
▁Jehu	-10593
▁Jour	-10594
▁evol	-10595
▁sets	-10596
▁cared	-10597
▁Rachel	-10598
▁wúńdíá	-10599
▁wẹ́wẹ́	-10600
▁extended	-10601
▁lílekoko	-10602
▁visitors	-10603
▁surrounded	-10604
▁àsẹ̀yìnbọ̀	-10605
AND	-10606
Inú	-10607
eem	-10608
ero	-10609
òró	-10610
órí	-10611
▁ìn	-10612
phat	-10613
▁Pub	-10614
▁aim	-10615
▁ajá	-10616
▁Gold	-10617
▁trem	-10618
▁embar	-10619
▁fault	-10620
▁fẹ́ra	-10621
▁throw	-10622
▁Pílátù	-10623
▁fìtara	-10624
▁lifted	-10625
▁látòkè	-10626
▁marked	-10627
▁Chinese	-10628
▁guarant	-10629
jíhìnrere	-10630
▁Marriage	-10631
▁Egyptians	-10632
▁primarily	-10633
▁imperfection	-10634
▁ìkọ́nilẹ́kọ̀ọ́	-10635
KÓ	-10636
du	-10637
Our	-10638
síni	-10639
▁YÌÍ	-10640
▁vow	-10641
▁Lead	-10642
▁gets	-10643
▁sọni	-10644
▁sorts	-10645
▁cancer	-10646
▁lọ́rọ̀	-10647
▁prover	-10648
▁súnmọ́	-10649
▁Òjíṣẹ́	-10650
▁disting	-10651
▁Abrahamu	-10652
▁enjoying	-10653
▁reproach	-10654
▁olùṣòtítọ́	-10655
▁oníṣọ́ọ̀ṣì	-10656
▁ìgbọ́kànlé	-10657
hor	-10658
▁KỌ	-10659
▁Yan	-10660
▁hit	-10661
uchad	-10662
▁ṣókí	-10663
▁Museum	-10664
▁nípàdé	-10665
▁sanctu	-10666
▁enabled	-10667
▁officer	-10668
▁portion	-10669
▁condemned	-10670
▁preparing	-10671
▁treasures	-10672
ECT	-10673
niní	-10674
péré	-10675
▁Han	-10676
▁ate	-10677
▁ble	-10678
▁bul	-10679
▁Ẹnu	-10680
▁Vict	-10681
▁Lẹ́nu	-10682
▁aáwọ̀	-10683
▁bride	-10684
▁rapid	-10685
▁òòjọ́	-10686
▁Gideon	-10687
▁kíákíá	-10688
▁láàánú	-10689
▁ìpalára	-10690
▁ẹgbàajì	-10691
▁accompani	-10692
▁ìránnilétí	-10693
ev	-10694
lam	-10695
▁DÁ	-10696
▁unn	-10697
acles	-10698
watch	-10699
▁Padà	-10700
▁Real	-10701
▁boat	-10702
▁jini	-10703
▁loud	-10704
▁láyà	-10705
▁lóko	-10706
▁wálé	-10707
▁direc	-10708
▁relate	-10709
▁thrown	-10710
▁worker	-10711
▁Certain	-10712
▁Nebukad	-10713
▁doctrine	-10714
▁accepting	-10715
▁patiently	-10716
▁protected	-10717
▁miraculous	-10718
▁ọ̀ọ́dúnrún	-10719
▁oníjẹ̀lẹ́ńkẹ́	-10720
JẸ́	-10721
road	-10722
ruly	-10723
▁Sus	-10724
atory	-10725
wọsán	-10726
▁tòun	-10727
▁yíjú	-10728
ashion	-10729
encing	-10730
mọtara	-10731
nezzar	-10732
▁Abram	-10733
▁gbèrò	-10734
eration	-10735
ictions	-10736
lecting	-10737
▁disple	-10738
▁díwọ̀n	-10739
▁famous	-10740
▁tọ́jọ́	-10741
▁ÌGBÉSÍ	-10742
▁àkópọ̀	-10743
▁confess	-10744
▁fitting	-10745
▁streets	-10746
▁preserve	-10747
uchadnezzar	-10748
▁weaknesses	-10749
olf	-10750
▁Den	-10751
▁STUD	-10752
▁níwà	-10753
▁Karen	-10754
▁Páṣíà	-10755
▁karùn	-10756
▁lẹ́rù	-10757
▁Ìlera	-10758
▁Portug	-10759
▁intell	-10760
▁rẹ́rẹ́	-10761
▁ìkọ́lé	-10762
▁ìtẹ̀wé	-10763
▁Welcome	-10764
▁accident	-10765
▁choosing	-10766
▁citizens	-10767
▁olùjọ́sìn	-10768
▁strangers	-10769
▁lọ́sọ̀ọ̀sẹ̀	-10770
yn	-10771
ṣa	-10772
elé	-10773
uri	-10774
fare	-10775
kọnà	-10776
tity	-10777
▁Mus	-10778
▁ìdì	-10779
▁ìkọ	-10780
bẹ́lú	-10781
orúkọ	-10782
risis	-10783
▁Henry	-10784
▁colle	-10785
▁paper	-10786
▁Bẹ̀rẹ̀	-10787
▁aṣẹ́wó	-10788
▁height	-10789
lélógójì	-10790
▁Ephraim	-10791
▁drawing	-10792
▁fífúnni	-10793
▁restric	-10794
▁Additionally	-10795
▁Dan	-10796
▁Tom	-10797
▁tom	-10798
acted	-10799
lehem	-10800
ticus	-10801
▁amaz	-10802
▁Carol	-10803
▁Titus	-10804
▁dealt	-10805
▁floor	-10806
▁talks	-10807
▁theme	-10808
▁trade	-10809
▁Ámósì	-10810
▁ìṣesí	-10811
▁Kèfèrí	-10812
▁bárakú	-10813
▁format	-10814
▁Heights	-10815
▁compare	-10816
▁comprom	-10817
▁stronger	-10818
▁teenager	-10819
▁terrible	-10820
▁depressed	-10821
▁èdèkòyédè	-10822
▁ìkọ̀sílẹ̀	-10823
▁generations	-10824
▁illustrations	-10825
▁47	-10826
▁48	-10827
Take	-10828
rous	-10829
sion	-10830
▁Use	-10831
▁bra	-10832
▁Long	-10833
▁admi	-10834
▁níyà	-10835
▁goats	-10836
▁hated	-10837
▁sanwó	-10838
▁awakọ̀	-10839
▁features	-10840
▁isolated	-10841
▁prejudice	-10842
▁wholesome	-10843
▁acknowledged	-10844
IR	-10845
UE	-10846
▁X	-10847
pon	-10848
ǹbù	-10849
▁MÍ	-10850
▁NI	-10851
▁Yọ	-10852
▁jò	-10853
erce	-10854
térì	-10855
Ọkàn	-10856
pered	-10857
▁Care	-10858
▁Fear	-10859
▁Nazi	-10860
▁dídi	-10861
▁ààrẹ	-10862
illing	-10863
▁Three	-10864
▁bàjẹ́	-10865
▁fàwọn	-10866
▁merch	-10867
▁remar	-10868
▁tìfẹ́	-10869
▁ìpèsè	-10870
▁dọ̀rọ̀	-10871
▁messen	-10872
▁strike	-10873
▁JEHOVAH	-10874
▁Richard	-10875
▁counter	-10876
▁experts	-10877
▁numbers	-10878
▁refresh	-10879
▁gracious	-10880
▁pérépéré	-10881
▁childhood	-10882
▁interview	-10883
▁reminders	-10884
▁tìfẹ́tìfẹ́	-10885
▁contributed	-10886
▁Nebuchadnezzar	-10887
yr	-10888
ńpẹ́	-10889
▁Eld	-10890
▁Par	-10891
▁Inde	-10892
▁Léfí	-10893
▁Main	-10894
▁réré	-10895
▁ìyẹ́	-10896
▁Chang	-10897
▁grass	-10898
▁ẹgbẹ̀	-10899
▁afford	-10900
▁cubits	-10901
▁ṣọ̀rẹ́	-10902
quarters	-10903
▁gbòǹgbò	-10904
▁shortly	-10905
niníṣẹ̀ẹ́	-10906
▁fighting	-10907
▁Bethlehem	-10908
▁repentant	-10909
▁testimony	-10910
▁Babylonian	-10911
▁Yunifásítì	-10912
▁everywhere	-10913
ńkì	-10914
city	-10915
lífì	-10916
▁Ori	-10917
Jesus	-10918
mìílò	-10919
▁Ìwọ̀	-10920
▁NÍGBÀ	-10921
▁coast	-10922
aithful	-10923
▁enable	-10924
▁forest	-10925
▁covering	-10926
▁suggests	-10927
▁disasters	-10928
OP	-10929
Pe	-10930
mún	-10931
oci	-10932
rink	-10933
what	-10934
ọ́wọ́	-10935
▁Barn	-10936
▁iyọ̀	-10937
▁keen	-10938
▁kọbi	-10939
▁kọjú	-10940
▁lest	-10941
▁shut	-10942
▁yíká	-10943
atives	-10944
▁Ọmọdé	-10945
▁Associ	-10946
▁Caesar	-10947
▁Prophe	-10948
▁Public	-10949
▁ìbàlẹ̀	-10950
▁ṣètọrẹ	-10951
▁dùbúlẹ̀	-10952
▁executed	-10953
▁Ẹ́sítérì	-10954
▁imprisoned	-10955
Ṣe	-10956
?’”	-10957
obe	-10958
off	-10959
▁39	-10960
bákú	-10961
lépa	-10962
mark	-10963
▁Dad	-10964
▁sor	-10965
▁sym	-10966
▁ìtà	-10967
dọ̀tí	-10968
▁nurs	-10969
▁ìyẹ̀	-10970
bákúkù	-10971
▁Habak	-10972
▁àbùdá	-10973
▁perish	-10974
▁submit	-10975
▁twelve	-10976
▁Besides	-10977
▁Hábákúkù	-10978
▁inherited	-10979
▁wíwàníhìn	-10980
▁awalẹ̀pìtàn	-10981
▁emotionally	-10982
?,	-10983
▁Ǹ	-10984
83,	-10985
fáfá	-10986
mosp	-10987
▁190	-10988
▁Ari	-10989
▁Ele	-10990
▁Tor	-10991
▁spl	-10992
▁ìje	-10993
licts	-10994
▁Hope	-10995
▁Sing	-10996
▁wash	-10997
utions	-10998
ùngbùn	-10999
▁Fọ́tò	-11000
▁fífún	-11001
▁gẹ́ẹ́	-11002
▁orílé	-11003
▁reads	-11004
▁àwọ́n	-11005
▁redeem	-11006
▁garment	-11007
▁iniquity	-11008
▁thankful	-11009
▁meditation	-11010
▁theocratic	-11011
▁threatened	-11012
▁Congregation	-11013
sk	-11014
can	-11015
kuk	-11016
▁RE	-11017
▁sè	-11018
níjà	-11019
▁48:	-11020
▁Exp	-11021
▁Kir	-11022
ained	-11023
rayed	-11024
▁Jude	-11025
▁abọ̀	-11026
▁heat	-11027
▁stew	-11028
▁Stand	-11029
▁fresh	-11030
▁léèrè	-11031
▁veget	-11032
▁àárọ̀	-11033
▁ìrunú	-11034
▁Ṣáínà	-11035
▁Commun	-11036
▁manage	-11037
▁Ébẹ́lì	-11038
▁Scienti	-11039
▁distant	-11040
▁nọ́ọ̀sì	-11041
▁Habakkuk	-11042
▁abọ̀rìṣà	-11043
▁eliminate	-11044
▁ìtìlẹ́yìn	-11045
▁Mẹ́talọ́kan	-11046
▁ọ̀dọ́langba	-11047
gẹ	-11048
yò	-11049
bíà	-11050
cow	-11051
rers	-11052
àbọ̀	-11053
▁ìṣù	-11054
pread	-11055
▁Awọn	-11056
▁Yálà	-11057
▁bank	-11058
▁ìdarí	-11059
attered	-11060
▁Jòsáyà	-11061
▁Things	-11062
▁mọ́rán	-11063
▁regist	-11064
▁ṣèpàdé	-11065
▁taratara	-11066
▁àìṣòótọ́	-11067
▁ìjákulẹ̀	-11068
▁headquarters	-11069
YE	-11070
dox	-11071
lov	-11072
rea	-11073
▁Ez	-11074
▁nu	-11075
tùtù	-11076
wers	-11077
▁Cre	-11078
▁Màtá	-11079
▁dáni	-11080
▁délé	-11081
coming	-11082
pìwàdà	-11083
▁hypoc	-11084
▁Béèyàn	-11085
▁Unlike	-11086
▁dating	-11087
▁dẹ́kun	-11088
▁forbid	-11089
▁distrac	-11090
▁proverb	-11091
▁lọ́rẹ̀ẹ́	-11092
▁patriarch	-11093
▁sanctuary	-11094
▁frequently	-11095
xim	-11096
▁66	-11097
kámà	-11098
▁Edo	-11099
jogún	-11100
rọ́dù	-11101
▁Coun	-11102
▁Dúró	-11103
▁base	-11104
▁subs	-11105
▁till	-11106
▁west	-11107
encies	-11108
lìkámà	-11109
rusted	-11110
▁Bibles	-11111
▁Moscow	-11112
▁buried	-11113
ánigbàgbé	-11114
▁upbuilding	-11115
DÍ	-11116
EAR	-11117
LES	-11118
íná	-11119
▁Gò	-11120
lara	-11121
sáré	-11122
▁42.	-11123
urday	-11124
usias	-11125
▁Back	-11126
▁jíjà	-11127
▁size	-11128
▁Rebek	-11129
▁camps	-11130
▁lower	-11131
▁lọ́ra	-11132
▁spite	-11133
hámọ́ra	-11134
▁atmosp	-11135
▁bought	-11136
▁kẹ̀rẹ̀	-11137
▁Trinity	-11138
▁context	-11139
▁onídààmú	-11140
▁supplies	-11141
▁Viewpoint	-11142
▁realistic	-11143
▁initiative	-11144
▁obligation	-11145
▁refreshing	-11146
MÙ	-11147
Tó	-11148
alu	-11149
báà	-11150
ram	-11151
▁Az	-11152
mejì	-11153
pret	-11154
thah	-11155
tùnú	-11156
▁Bre	-11157
▁ste	-11158
▁Ìbá	-11159
▁ṣíṣ	-11160
ennis	-11161
▁kẹfà	-11162
▁pull	-11163
▁àkún	-11164
▁ọ̀rá	-11165
dọ́gba	-11166
▁Sinai	-11167
▁dwelt	-11168
▁waste	-11169
▁Making	-11170
▁Within	-11171
▁angẹli	-11172
▁látàrí	-11173
▁organiz	-11174
▁singing	-11175
idespread	-11176
▁scientific	-11177
▁description	-11178
▁àríyànjiyàn	-11179
TR	-11180
RUN	-11181
ius	-11182
oria	-11183
orses	-11184
ourse	-11185
▁Supp	-11186
▁Ọlọ́	-11187
▁staff	-11188
▁Ìyàwó	-11189
▁ìnáwó	-11190
▁Living	-11191
▁defend	-11192
▁léèwọ̀	-11193
▁observ	-11194
▁applies	-11195
▁programs	-11196
▁captivity	-11197
▁Ọmọbìnrin	-11198
ird	-11199
kìá	-11200
▁yo	-11201
▁ÀTI	-11202
báàtì	-11203
kọ́ṣe	-11204
▁2013	-11205
▁adùn	-11206
▁hang	-11207
▁lamp	-11208
▁radi	-11209
▁àtẹ̀	-11210
▁ẹkùn	-11211
▁adver	-11212
▁àádọ́	-11213
▁Kékeré	-11214
▁ethnic	-11215
▁rivers	-11216
▁talked	-11217
▁playing	-11218
▁ìgbọràn	-11219
▁southern	-11220
▁happening	-11221
▁suggested	-11222
▁regardless	-11223
;"	-11224
kàyè	-11225
létò	-11226
ápọn	-11227
▁Alà	-11228
▁sib	-11229
▁HAVE	-11230
▁jọjọ	-11231
▁Níbẹ̀	-11232
▁dábàá	-11233
▁Ẹ̀bùn	-11234
▁fìtílà	-11235
▁injury	-11236
▁tested	-11237
▁ìsìnkú	-11238
▁torture	-11239
▁ìwàkiwà	-11240
▁departed	-11241
▁dọ́gbọ́n	-11242
▁sentence	-11243
▁ọ̀pọ̀tọ́	-11244
▁lóríṣiríṣi	-11245
▁relatively	-11246
▁continually	-11247
▁friendships	-11248
CE	-11249
né	-11250
Jẹ́	-11251
cal	-11252
rog	-11253
ńgá	-11254
▁BÁ	-11255
▁DO	-11256
uits	-11257
▁Bẹ̀	-11258
▁Ìrí	-11259
lemọ́	-11260
ọ̀kàn	-11261
▁fìwà	-11262
▁roof	-11263
▁wipe	-11264
▁yàgò	-11265
icious	-11266
tọ̀wọ̀	-11267
▁Arena	-11268
▁Frank	-11269
▁ẹ̀san	-11270
▁differ	-11271
▁losing	-11272
▁ìbẹ̀wò	-11273
▁capable	-11274
▁existed	-11275
▁obeying	-11276
wọ̀tọ̀wọ̀	-11277
▁creature	-11278
▁kingdoms	-11279
ẹ̀tọ́mọ̀wà	-11280
▁àgàbàgebè	-11281
▁ṣàkọsílẹ̀	-11282
▁compassionate	-11283
uk	-11284
hio	-11285
jíá	-11286
kàá	-11287
owú	-11288
ánú	-11289
Lord	-11290
bìtì	-11291
tíkù	-11292
▁Mil	-11293
▁Àṣà	-11294
▁Fojú	-11295
▁urge	-11296
▁ọrùn	-11297
▁Avoid	-11298
▁boast	-11299
▁holds	-11300
▁láárí	-11301
▁parọ́	-11302
▁recon	-11303
▁sanra	-11304
▁sáàmù	-11305
▁Austri	-11306
▁bẹ̀bẹ̀	-11307
▁fought	-11308
▁fífara	-11309
mọ́lemọ́	-11310
▁devoted	-11311
▁oppress	-11312
▁ìgbádùn	-11313
▁comparis	-11314
▁friendly	-11315
▁location	-11316
▁ìfòyemọ̀	-11317
▁ṣiyèméjì	-11318
bánisọ̀rọ̀	-11319
▁olùṣèwádìí	-11320
▁significance	-11321
▁ìṣẹ́niníṣẹ̀ẹ́	-11322
▁ẹ̀ẹ́dẹ́gbẹ̀ta	-11323
irm	-11324
Ńṣe	-11325
▁ow	-11326
ọ́ra	-11327
▁Gil	-11328
▁Lab	-11329
▁Láé	-11330
▁Oṣù	-11331
▁fura	-11332
▁ìbẹ́	-11333
Behold	-11334
vestig	-11335
▁1090,	-11336
▁alien	-11337
▁aládé	-11338
▁blame	-11339
▁grant	-11340
▁kinds	-11341
▁polic	-11342
▁attrib	-11343
▁income	-11344
▁physic	-11345
▁resent	-11346
▁target	-11347
▁Supreme	-11348
▁àtààbọ̀	-11349
▁Léfítíkù	-11350
▁contempl	-11351
▁tendency	-11352
▁enthusias	-11353
Wọn	-11354
kis	-11355
opæ	-11356
tho	-11357
▁Nú	-11358
▁Tì	-11359
▁jú	-11360
EACH	-11361
rònú	-11362
▁HIV	-11363
eving	-11364
oríjì	-11365
▁Next	-11366
▁scen	-11367
opædia	-11368
▁disag	-11369
▁gbani	-11370
▁kànga	-11371
▁scale	-11372
▁viney	-11373
▁òrùlé	-11374
▁Author	-11375
▁Látàrí	-11376
▁haught	-11377
▁nọ́ńbà	-11378
▁sinimá	-11379
▁survey	-11380
▁current	-11381
▁fashion	-11382
▁miracle	-11383
▁reminds	-11384
▁villages	-11385
▁principal	-11386
▁rewarding	-11387
▁aláìṣòótọ́	-11388
▁hospitality	-11389
.'	-11390
Èé	-11391
eve	-11392
wísí	-11393
▁gẹ̀	-11394
▁vain	-11395
▁ǸJẸ́	-11396
kàáwọ́	-11397
ograph	-11398
▁3,000	-11399
▁absor	-11400
▁admit	-11401
▁dying	-11402
▁hates	-11403
▁adopted	-11404
▁Saturday	-11405
▁Leviticus	-11406
▁accompanied	-11407
▁researchers	-11408
▁ọ̀dọ́mọkùnrin	-11409
mod	-11410
▁ge	-11411
ffic	-11412
isho	-11413
▁Act	-11414
▁van	-11415
▁yẹ́	-11416
onder	-11417
▁jalè	-11418
batisí	-11419
▁Jíjẹ́	-11420
▁doors	-11421
▁peers	-11422
▁yours	-11423
▁àjàgà	-11424
▁Ẹ̀tọ́	-11425
▁dọ́gba	-11426
▁Ancient	-11427
▁opposed	-11428
▁readers	-11429
▁sayings	-11430
▁Interest	-11431
▁criminal	-11432
▁discover	-11433
▁trusting	-11434
▁objective	-11435
▁returning	-11436
▁uncertain	-11437
▁discourage	-11438
▁prosperity	-11439
▁wholehearted	-11440
,'	-11441
HÓ	-11442
ded	-11443
ùrò	-11444
ńbé	-11445
▁46	-11446
▁IT	-11447
HÓFÀ	-11448
minú	-11449
▁Sef	-11450
▁dog	-11451
▁outc	-11452
▁quar	-11453
▁àléé	-11454
ùròtẹ́	-11455
▁11201	-11456
▁2483,	-11457
▁tools	-11458
▁withd	-11459
▁ìríra	-11460
ọ́rẹ̀ẹ́	-11461
▁Martin	-11462
▁gangan	-11463
▁hungry	-11464
▁kíyèsi	-11465
▁lọ́sẹ̀	-11466
▁plants	-11467
▁strict	-11468
▁àgbélé	-11469
▁captain	-11470
▁damaged	-11471
▁Ìránṣẹ́	-11472
▁ìrẹ́pọ̀	-11473
▁resolved	-11474
▁preserved	-11475
▁tẹ́ńbẹ́lú	-11476
RÈ	-11477
agn	-11478
ayì	-11479
ńdà	-11480
▁56	-11481
▁Mc	-11482
dìdì	-11483
fold	-11484
folú	-11485
▁Hes	-11486
▁der	-11487
essor	-11488
ÈHÓFÀ	-11489
▁2008	-11490
▁List	-11491
▁meas	-11492
▁àgbò	-11493
▁honey	-11494
▁purọ́	-11495
▁sympt	-11496
▁Filísí	-11497
▁Ásíríà	-11498
▁Francis	-11499
▁mistake	-11500
▁morally	-11501
sequently	-11502
▁capacity	-11503
▁idolatry	-11504
▁pregnant	-11505
▁treacher	-11506
ùròtẹ́sítá	-11507
▁delighted	-11508
▁earnestly	-11509
▁resulting	-11510
▁atmosphere	-11511
fó	-11512
wì	-11513
lor	-11514
lóye	-11515
míkà	-11516
ìgbà	-11517
▁41:	-11518
▁Hẹ́	-11519
▁Mac	-11520
cised	-11521
▁inex	-11522
▁síná	-11523
▁yíyẹ	-11524
itions	-11525
uclear	-11526
▁2002,	-11527
▁bófin	-11528
▁dúkìá	-11529
▁ruled	-11530
▁urges	-11531
▁àmujù	-11532
▁summer	-11533
▁ìṣáájú	-11534
folúṣọ̀n	-11535
▁Assyria	-11536
▁acquire	-11537
▁eagerly	-11538
▁kíkọ́ni	-11539
▁likened	-11540
▁schools	-11541
▁Gbólóhùn	-11542
▁Ẹgbẹ̀rún	-11543
▁believing	-11544
▁entrusted	-11545
dínláàádọ́ta	-11546
ùròtẹ́sítáǹtì	-11547
▁ìj	-11548
▁ṣọ	-11549
Some	-11550
bies	-11551
emic	-11552
gery	-11553
jìká	-11554
rust	-11555
▁Suc	-11556
▁lam	-11557
▁ìwo	-11558
akers	-11559
imele	-11560
pamọ́	-11561
▁Reub	-11562
▁mímọ	-11563
▁halẹ̀	-11564
▁types	-11565
▁tọwọ́	-11566
▁Master	-11567
▁lẹ́bùn	-11568
▁settle	-11569
▁spiriti	-11570
▁warfare	-11571
▁àforíjì	-11572
▁messages	-11573
▁Ìgbéyàwó	-11574
▁President	-11575
▁previously	-11576
▁recreation	-11577
▁sufficient	-11578
▁comfortable	-11579
▁explanation	-11580
▁tọ̀wọ̀tọ̀wọ̀	-11581
dìn	-11582
ÁDE	-11583
▁WO	-11584
good	-11585
tótó	-11586
ẹ́nu	-11587
▁Hol	-11588
▁Pọ́	-11589
▁Syd	-11590
▁art	-11591
▁fàá	-11592
▁Midi	-11593
▁oath	-11594
ildren	-11595
▁Itali	-11596
▁Olórí	-11597
▁káàtó	-11598
▁pẹ́ẹ́	-11599
▁àtọwọ́	-11600
▁Against	-11601
▁Journal	-11602
▁marital	-11603
▁replaced	-11604
▁afflicted	-11605
▁encounter	-11606
▁searching	-11607
▁rebellious	-11608
KỌ́	-11609
RỌ̀	-11610
bul	-11611
gal	-11612
ugh	-11613
▁AP	-11614
▁Rò	-11615
▁dr	-11616
▁Ṣì	-11617
tici	-11618
▁38:	-11619
▁Uri	-11620
▁ife	-11621
▁spo	-11622
▁vac	-11623
riday	-11624
▁bird	-11625
▁milk	-11626
▁níhà	-11627
▁ooru	-11628
▁symp	-11629
▁unus	-11630
▁drunk	-11631
▁owner	-11632
▁reply	-11633
▁sharp	-11634
▁ensure	-11635
▁kánkán	-11636
▁sports	-11637
▁sọ́wọ́	-11638
▁Library	-11639
▁printing	-11640
▁evolution	-11641
▁observing	-11642
▁transport	-11643
▁oppression	-11644
▁Ìrànlọ́wọ́	-11645
▁Encyclopædia	-11646
▁Pùròtẹ́sítáǹtì	-11647
pes	-11648
▁65	-11649
WÁJÚ	-11650
búté	-11651
sìnì	-11652
▁Num	-11653
▁Nàí	-11654
▁ibí	-11655
agles	-11656
ified	-11657
▁mach	-11658
▁ṣekú	-11659
phthah	-11660
▁Joṣua	-11661
▁begun	-11662
▁equal	-11663
▁gaara	-11664
▁gbayì	-11665
▁hears	-11666
▁sweet	-11667
▁title	-11668
▁bọ́ǹbù	-11669
▁Nífẹ̀ẹ́	-11670
▁Samarit	-11671
▁Teacher	-11672
▁ìkọ̀kọ̀	-11673
▁construc	-11674
▁engaging	-11675
▁receives	-11676
▁rewarded	-11677
▁symbolic	-11678
▁comforted	-11679
▁steadfast	-11680
▁necessarily	-11681
bre	-11682
▁Ki	-11683
▁120	-11684
▁Nis	-11685
▁Dead	-11686
▁Lamb	-11687
▁tínú	-11688
ancing	-11689
ension	-11690
▁doesn	-11691
▁equip	-11692
▁mates	-11693
▁minor	-11694
▁perse	-11695
▁revol	-11696
▁rẹ́ni	-11697
▁sẹ́nu	-11698
▁forúkọ	-11699
▁Rebekah	-11700
▁accused	-11701
▁desired	-11702
▁edition	-11703
▁onítara	-11704
▁whereas	-11705
▁branches	-11706
▁addressed	-11707
▁Concerning	-11708
▁interesting	-11709
▁ÌK	-11710
ague	-11711
rìrì	-11712
vors	-11713
▁25;	-11714
▁45.	-11715
▁Hon	-11716
ATION	-11717
aving	-11718
dùnnú	-11719
▁USED	-11720
▁Wise	-11721
▁WỌ́N	-11722
▁mort	-11723
▁twice	-11724
▁ìṣètò	-11725
mọ́ọ́nì	-11726
▁method	-11727
▁òpópónà	-11728
▁Jephthah	-11729
▁numbered	-11730
▁agreement	-11731
ean	-11732
ums	-11733
ario	-11734
▁Kún	-11735
These	-11736
lects	-11737
▁Beli	-11738
▁Jean	-11739
▁kọlu	-11740
▁peer	-11741
▁rose	-11742
▁stir	-11743
cripts	-11744
rounds	-11745
▁IWÁJÚ	-11746
▁Síríà	-11747
▁compe	-11748
▁depth	-11749
▁gates	-11750
▁èéfín	-11751
▁ìrúbọ	-11752
▁claims	-11753
▁ìdọ̀tí	-11754
▁station	-11755
▁títẹ̀lé	-11756
▁Thousand	-11757
▁promotes	-11758
▁schedule	-11759
▁survived	-11760
▁conflicts	-11761
▁lọ́nàkọnà	-11762
LÉ	-11763
▁(2	-11764
umed	-11765
▁40.	-11766
▁idẹ	-11767
fọkàn	-11768
ilton	-11769
▁láre	-11770
ṣánṣán	-11771
▁àròsọ	-11772
▁abroad	-11773
▁figure	-11774
▁horses	-11775
▁minded	-11776
▁engaged	-11777
▁outlook	-11778
▁movement	-11779
▁proceeded	-11780
▁meditating	-11781
▁mẹ́rìnlélógún	-11782
▁akẹ́kọ̀ọ́jinlẹ̀	-11783
One	-11784
low	-11785
▁PE	-11786
kúpa	-11787
▁àyàn	-11788
giving	-11789
pàtàkì	-11790
▁begot	-11791
▁compl	-11792
▁dààmú	-11793
▁lóore	-11794
▁minim	-11795
▁olive	-11796
▁JÈHÓFÀ	-11797
▁annual	-11798
▁lálejò	-11799
▁Ọlọrun	-11800
▁changing	-11801
▁transfer	-11802
watchtower	-11803
▁subjection	-11804
▁tipẹ́tipẹ́	-11805
KAN	-11806
ior	-11807
ops	-11808
cest	-11809
dánì	-11810
fútà	-11811
lapà	-11812
rive	-11813
ríko	-11814
▁31;	-11815
▁enh	-11816
▁ìka	-11817
díónì	-11818
using	-11819
▁Kárí	-11820
LỌ́RUN	-11821
agbára	-11822
▁2019,	-11823
▁lópin	-11824
▁olójú	-11825
▁ólífì	-11826
titions	-11827
▁Andrew	-11828
▁Sermon	-11829
▁forete	-11830
▁hunger	-11831
▁judged	-11832
▁shadow	-11833
▁stands	-11834
▁Britann	-11835
▁deliber	-11836
▁enables	-11837
▁stumble	-11838
▁àlìkámà	-11839
▁Everyone	-11840
▁peaceable	-11841
▁widespread	-11842
OT	-11843
Even	-11844
pare	-11845
ÈYÀN	-11846
▁Gab	-11847
▁Men	-11848
▁gbo	-11849
▁2010	-11850
▁Were	-11851
▁dànù	-11852
▁pick	-11853
▁shel	-11854
lapàla	-11855
▁èdìdì	-11856
artment	-11857
selfish	-11858
▁Sweden	-11859
▁breast	-11860
▁limits	-11861
▁permit	-11862
▁struct	-11863
wuyewuye	-11864
▁Austria	-11865
▁Gídíónì	-11866
▁Western	-11867
▁alágbèé	-11868
▁satisfy	-11869
▁ìkésíni	-11870
▁desirable	-11871
▁execution	-11872
▁extensive	-11873
▁formatted	-11874
▁permission	-11875
▁discussions	-11876
▁expectations	-11877
asa	-11878
bac	-11879
ábù	-11880
Just	-11881
dómù	-11882
mesì	-11883
▁jan	-11884
▁rod	-11885
▁àga	-11886
jẹ́ẹ́	-11887
known	-11888
peror	-11889
▁Prin	-11890
▁fond	-11891
▁yoke	-11892
▁1,000	-11893
▁Judas	-11894
▁Langu	-11895
▁STUDY	-11896
▁explo	-11897
▁jùmọ̀	-11898
▁shine	-11899
▁Albert	-11900
▁Empire	-11901
▁altern	-11902
▁motive	-11903
▁ojúgbà	-11904
▁glorify	-11905
▁létòlétò	-11906
▁pálapàla	-11907
▁ẹfolúṣọ̀n	-11908
▁introduced	-11909
▁educational	-11910
▁Organization	-11911
yóò	-11912
▁PÉ	-11913
aces	-11914
ouds	-11915
▁Dem	-11916
▁Jọ́	-11917
▁Ran	-11918
▁Tah	-11919
erson	-11920
▁Ohio	-11921
▁Ẹ̀rù	-11922
thodox	-11923
▁Arist	-11924
▁Leban	-11925
▁curse	-11926
▁renew	-11927
▁smile	-11928
▁wakọ̀	-11929
▁Ẹlòmí	-11930
▁Friday	-11931
▁Olùṣọ́	-11932
▁openly	-11933
▁stream	-11934
▁thirty	-11935
▁Italian	-11936
▁Jẹ́fútà	-11937
▁corresp	-11938
▁Britannica	-11939
▁adjustments	-11940
▁lọ́wọ́lọ́wọ́	-11941
▁bom	-11942
▁ijó	-11943
iders	-11944
ńbélé	-11945
▁Bójú	-11946
▁arch	-11947
▁fini	-11948
▁paná	-11949
▁pret	-11950
▁rage	-11951
▁snow	-11952
▁crown	-11953
▁ẹ̀gún	-11954
icating	-11955
▁Tòótọ́	-11956
▁lọ́gbà	-11957
▁uphold	-11958
▁àwọsán	-11959
▁Shepher	-11960
▁torment	-11961
▁wealthy	-11962
▁ọdọọdún	-11963
▁priority	-11964
▁sincerely	-11965
▁sẹ́gbẹ̀ẹ́	-11966
▁ìdàgbàsókè	-11967
▁surrounding	-11968
ṢẸ́	-11969
abas	-11970
mérì	-11971
▁Mom	-11972
▁cow	-11973
▁Dist	-11974
▁band	-11975
▁diet	-11976
▁gent	-11977
umbers	-11978
▁glori	-11979
▁Áhábù	-11980
▁deeper	-11981
▁reduce	-11982
▁ìdámẹ́	-11983
▁missing	-11984
▁ìṣẹ́gun	-11985
▁Hẹ́rọ́dù	-11986
▁Nàíjíríà	-11987
▁Religion	-11988
▁diligent	-11989
▁overlook	-11990
▁products	-11991
▁Happiness	-11992
▁Professor	-11993
▁comprehen	-11994
▁olùṣàkóso	-11995
▁professor	-11996
▁respected	-11997
▁telephone	-11998
▁Kérésìmesì	-11999
ik	-12000
dens	-12001
gídí	-12002
kuru	-12003
kẹta	-12004
osea	-12005
rate	-12006
ríkò	-12007
lings	-12008
▁poll	-12009
▁régé	-12010
▁womb	-12011
▁analy	-12012
▁Àjọṣe	-12013
▁totally	-12014
▁Tọkọtaya	-12015
▁enduring	-12016
▁planning	-12017
▁Published	-12018
▁anxieties	-12019
▁appealing	-12020
▁statements	-12021
▁participate	-12022
▁disobedience	-12023
DÈ	-12024
ede	-12025
iop	-12026
fiwé	-12027
jòló	-12028
▁hos	-12029
▁ibà	-12030
▁ìjẹ	-12031
blems	-12032
gment	-12033
overy	-12034
quate	-12035
▁igun	-12036
▁jobs	-12037
▁ìdán	-12038
pẹ̀pẹ̀	-12039
sẹ̀lẹ̀	-12040
▁domes	-12041
▁provin	-12042
critical	-12043
▁defense	-12044
▁Filísínì	-12045
▁Millions	-12046
▁disorder	-12047
▁document	-12048
▁maturity	-12049
▁symptoms	-12050
▁lákọ̀ọ́kọ́	-12051
▁yunifásítì	-12052
▁ìdákẹ́kọ̀ọ́	-12053
AD	-12054
▁CA	-12055
▁hó	-12056
▁Ìd	-12057
cean	-12058
▁Art	-12059
▁yéé	-12060
mẹ̀yà	-12061
tices	-12062
▁Much	-12063
ycholo	-12064
▁Hosea	-12065
▁Years	-12066
▁fifth	-12067
ibiribi	-12068
ousness	-12069
yàmẹ̀yà	-12070
▁Dennis	-12071
▁Secret	-12072
▁asleep	-12073
▁obeyed	-12074
▁widows	-12075
▁Ìbẹ̀rù	-12076
▁collect	-12077
▁modesty	-12078
▁pursuit	-12079
▁tragedy	-12080
▁visible	-12081
▁announced	-12082
▁practiced	-12083
▁z	-12084
kul	-12085
ulf	-12086
úrá	-12087
lódé	-12088
yọyọ	-12089
▁600	-12090
▁Fed	-12091
▁Zam	-12092
▁sed	-12093
▁unw	-12094
▁Ìkó	-12095
▁ìsọ	-12096
gbàlà	-12097
there	-12098
yìíká	-12099
▁Alẹ́	-12100
▁lift	-12101
▁load	-12102
▁prop	-12103
▁spot	-12104
▁ṣíṣè	-12105
dọ̀dọ́	-12106
▁dilig	-12107
▁draws	-12108
▁hoped	-12109
▁misle	-12110
▁valid	-12111
▁ìṣara	-12112
▁Calvin	-12113
▁distin	-12114
▁ibùsùn	-12115
▁jòjòló	-12116
▁reside	-12117
▁Eastern	-12118
▁nígboyà	-12119
▁passage	-12120
▁reigned	-12121
▁Òǹkọ̀wé	-12122
▁investig	-12123
▁Alexander	-12124
▁látọkànwá	-12125
▁kẹ̀rẹ̀kẹ̀rẹ̀	-12126
▁concentration	-12127
Fi	-12128
TER	-12129
▁Bú	-12130
ioni	-12131
ques	-12132
tayọ	-12133
▁Kaz	-12134
▁Tri	-12135
▁Yor	-12136
▁díd	-12137
▁Plan	-12138
ńgájíá	-12139
▁ARTIC	-12140
▁dájọ́	-12141
▁goods	-12142
▁weigh	-12143
▁Little	-12144
▁Polish	-12145
▁gómìnà	-12146
▁Jordani	-12147
▁confron	-12148
▁driving	-12149
▁gbéyàwó	-12150
▁largest	-12151
▁deceived	-12152
▁exchange	-12153
▁reasoned	-12154
▁stranger	-12155
▁priorities	-12156
Not	-12157
OUT	-12158
een	-12159
yam	-12160
zab	-12161
ẹnì	-12162
gbọn	-12163
ùpẹ̀	-12164
▁Bud	-12165
▁Nah	-12166
▁Tem	-12167
▁dẹ̀	-12168
káwọ́	-12169
▁José	-12170
▁Orin	-12171
▁ages	-12172
▁lóró	-12173
▁sorí	-12174
▁ỌDÚN	-12175
earing	-12176
urious	-12177
▁Trust	-12178
▁ibodè	-12179
▁rédíò	-12180
osexual	-12181
▁courts	-12182
▁esteem	-12183
▁unjust	-12184
▁unlike	-12185
▁láyìíká	-12186
▁exciting	-12187
▁governor	-12188
▁ìgbèríko	-12189
fellowshipp	-12190
▁impression	-12191
▁wrongdoing	-12192
▁àlùmọ́ọ́nì	-12193
▁ṣíṣeyebíye	-12194
▁approaching	-12195
gg	-12196
hónú	-12197
rolo	-12198
▁Mid	-12199
aints	-12200
▁2002	-12201
▁Ahas	-12202
▁Aísá	-12203
▁Disc	-12204
▁Ones	-12205
▁Zeph	-12206
▁seas	-12207
▁seat	-12208
▁àìrí	-12209
▁Lẹ́ẹ̀	-12210
▁Power	-12211
▁piece	-12212
▁Ethiop	-12213
▁disobe	-12214
▁feared	-12215
▁sísọni	-12216
▁ìtúmọ̀	-12217
inations	-12218
▁Evidently	-12219
▁embarrass	-12220
▁willingness	-12221
yó	-12222
nes	-12223
▁PS	-12224
cons	-12225
mìtì	-12226
▁151	-12227
▁ade	-12228
tedly	-12229
▁doll	-12230
▁jowú	-12231
▁pópó	-12232
▁rein	-12233
▁sche	-12234
▁Benef	-12235
▁cease	-12236
▁kọ́lé	-12237
▁lárọ̀	-12238
ániláyà	-12239
▁Bibeli	-12240
▁Judges	-12241
▁Késárì	-12242
▁Quebec	-12243
▁advers	-12244
▁adágún	-12245
▁exhort	-12246
oubtedly	-12247
▁Jọ́dánì	-12248
▁replace	-12249
▁Answered	-12250
▁Nàìjíríà	-12251
▁nígbèkùn	-12252
▁whenever	-12253
▁gbàfiyèsí	-12254
▁immediate	-12255
▁universal	-12256
▁unselfish	-12257
▁àsẹ̀yìnwá	-12258
▁ìjẹ́pàtàkì	-12259
▁manuscripts	-12260
▁overwhelmed	-12261
fọ́	-12262
kèé	-12263
áyé	-12264
èbé	-12265
▁fu	-12266
JECT	-12267
néfè	-12268
▁Fer	-12269
▁SUB	-12270
▁Sch	-12271
▁Sla	-12272
▁ìnì	-12273
rants	-12274
èbékà	-12275
▁Efra	-12276
▁Part	-12277
▁kórè	-12278
▁kulẹ̀	-12279
▁sánmà	-12280
ọ́wọ́tó	-12281
▁Nínéfè	-12282
▁aláìlá	-12283
▁doubts	-12284
▁flocks	-12285
▁outset	-12286
▁rescue	-12287
▁valley	-12288
▁Central	-12289
▁settled	-12290
▁Learning	-12291
▁director	-12292
▁gambling	-12293
▁pọ́ńbélé	-12294
▁shoulder	-12295
▁bíṣọ́ọ̀bù	-12296
▁countless	-12297
▁elsewhere	-12298
▁humankind	-12299
▁scattered	-12300
▁àfonífojì	-12301
▁commitment	-12302
▁possibility	-12303
An	-12304
ìp	-12305
600	-12306
Ojú	-12307
ino	-12308
ÈRÈ	-12309
ẹyẹ	-12310
From	-12311
bles	-12312
ewor	-12313
onel	-12314
sied	-12315
úpẹ́	-12316
▁27;	-12317
▁Àtà	-12318
After	-12319
bacco	-12320
ọ́run	-12321
▁Boaz	-12322
▁inse	-12323
itated	-12324
orders	-12325
▁Damas	-12326
▁catch	-12327
▁delay	-12328
▁falls	-12329
▁forty	-12330
▁gbàrà	-12331
▁jìnnì	-12332
▁ìkòkò	-12333
▁ìtajà	-12334
mọ́tótó	-12335
▁crisis	-12336
▁fèrèsé	-12337
▁Ìdájọ́	-12338
,000,000	-12339
ordinary	-12340
utrition	-12341
▁scribes	-12342
▁Mountain	-12343
▁dámọ̀ràn	-12344
▁elements	-12345
▁instruct	-12346
▁officers	-12347
▁jìnnìjìnnì	-12348
▁lemọ́lemọ́	-12349
dy	-12350
bọn	-12351
séà	-12352
win	-12353
▁Mr	-12354
▁od	-12355
▁ÈDÈ	-12356
▁Conf	-12357
▁game	-12358
▁medi	-12359
Lẹ́yìn	-12360
▁Hóséà	-12361
▁Super	-12362
▁onílé	-12363
▁òórùn	-12364
▁ṣááju	-12365
▁ọ̀kọ̀	-12366
asingly	-12367
▁exclus	-12368
▁fruits	-12369
▁helper	-12370
▁Jehosha	-12371
▁unusual	-12372
▁Áńgẹ́lì	-12373
▁Barnabas	-12374
▁informed	-12375
▁measures	-12376
▁opinions	-12377
▁reflects	-12378
▁ribiribi	-12379
▁forgotten	-12380
▁acquainted	-12381
▁conscienti	-12382
▁discussing	-12383
▁privileged	-12384
▁prophesied	-12385
▁supporting	-12386
▁advancement	-12387
▁examination	-12388
▁lárọ̀ọ́wọ́tó	-12389
▁àkọ́kọ́bẹ̀rẹ̀	-12390
ANS	-12391
veh	-12392
átá	-12393
peak	-12394
udiẹ	-12395
▁42:	-12396
▁KỌ́	-12397
ching	-12398
kípẹ́	-12399
▁Bran	-12400
▁Ezra	-12401
▁Imit	-12402
▁Títù	-12403
▁léṣe	-12404
▁péjọ	-12405
▁repa	-12406
▁Fáwọn	-12407
▁Moabu	-12408
▁fínnú	-12409
▁àdádó	-12410
▁ìkókó	-12411
eworthy	-12412
▁Rèbékà	-12413
▁ancest	-12414
▁archae	-12415
▁aṣálẹ̀	-12416
▁exceed	-12417
▁handed	-12418
▁linked	-12419
▁SUBJECT	-12420
▁farmers	-12421
▁honesty	-12422
▁sending	-12423
▁ìyẹ̀fun	-12424
▁ẹ̀ẹ̀rùn	-12425
▁publicly	-12426
▁tomorrow	-12427
▁interpret	-12428
▁witnessed	-12429
▁Àfonífojì	-12430
▁conducting	-12431
▁influences	-12432
▁Er	-12433
Have	-12434
dìẹ̀	-12435
icho	-12436
mùtí	-12437
napp	-12438
▁kne	-12439
adium	-12440
iseum	-12441
plete	-12442
▁bind	-12443
▁lóun	-12444
▁ọlẹ̀	-12445
kàngbé	-12446
▁1914.	-12447
▁Using	-12448
▁báńkì	-12449
▁sọkún	-12450
▁Alàgbà	-12451
▁erùpẹ̀	-12452
▁lẹ́kùn	-12453
▁afterno	-12454
▁highest	-12455
▁látọwọ́	-12456
▁rewards	-12457
▁ỌLỌ́RUN	-12458
▁similarly	-12459
▁àgbélébùú	-12460
▁correction	-12461
▁facilities	-12462
▁Jehoshaphat	-12463
▁traditional	-12464
▁&	-12465
ift	-12466
ude	-12467
yọ́	-12468
ǹkà	-12469
fini	-12470
gram	-12471
▁bag	-12472
anáyà	-12473
ariah	-12474
erate	-12475
kọ́ni	-12476
ordin	-12477
▁Last	-12478
▁kásẹ̀	-12479
▁range	-12480
▁sources	-12481
▁talents	-12482
▁Coliseum	-12483
▁admitted	-12484
▁desolate	-12485
▁Ẹnikẹ́ni	-12486
▁donations	-12487
▁president	-12488
▁rejoicing	-12489
jùmọ̀sọ̀rọ̀	-12490
▁ajíhìnrere	-12491
▁effectively	-12492
▁characteristic	-12493
EF	-12494
KÒ	-12495
OND	-12496
èṣì	-12497
▁fẹ	-12498
dásì	-12499
▁Jim	-12500
▁Kíá	-12501
▁2009	-12502
▁Reho	-12503
▁Writ	-12504
▁chem	-12505
▁clay	-12506
▁Athen	-12507
▁Belgi	-12508
▁impar	-12509
▁sides	-12510
▁Ṣẹlẹ̀	-12511
▁alágbà	-12512
▁irínwó	-12513
▁thirst	-12514
▁weekly	-12515
lúkúlùkù	-12516
▁conform	-12517
▁injured	-12518
▁iyèméjì	-12519
▁prepara	-12520
▁Ábúrámù	-12521
▁suitable	-12522
▁ìsoríkọ́	-12523
▁extremely	-12524
▁nígbẹ̀yìn	-12525
▁pẹ̀tẹ́lẹ̀	-12526
▁mánigbàgbé	-12527
Are	-12528
hum	-12529
irú	-12530
put	-12531
was	-12532
▁Ec	-12533
▁ÌṢ	-12534
tesy	-12535
▁Van	-12536
▁ìrì	-12537
eting	-12538
hẹ́mù	-12539
tílẹ́	-12540
▁Wall	-12541
▁cand	-12542
ortion	-12543
▁Shall	-12544
▁Women	-12545
▁sábàá	-12546
▁èbúté	-12547
▁ìwọra	-12548
verance	-12549
▁Baruch	-12550
▁Tahiti	-12551
▁lẹ́bàá	-12552
▁lacking	-12553
▁records	-12554
▁tongues	-12555
▁Ìṣàkóso	-12556
▁Orthodox	-12557
▁akitiyan	-12558
tílẹ́hẹ́mù	-12559
▁buildings	-12560
etes	-12561
▁Put	-12562
▁Set	-12563
▁ìbò	-12564
orgia	-12565
▁bron	-12566
▁mànà	-12567
▁salt	-12568
▁wúni	-12569
mìtìtì	-12570
▁Above	-12571
▁Nílẹ̀	-12572
▁ignor	-12573
▁realm	-12574
▁Èkejì	-12575
kípẹ́kí	-12576
▁Hebron	-12577
▁Júdásì	-12578
▁Sọ̀rọ̀	-12579
▁beasts	-12580
▁ìpínyà	-12581
▁Jericho	-12582
▁amazing	-12583
▁arrival	-12584
▁captive	-12585
▁lójúmọ́	-12586
▁Àgbègbè	-12587
▁motivate	-12588
▁wherever	-12589
▁ìyàlẹ́nu	-12590
▁Zephaniah	-12591
▁Department	-12592
▁jagunjagun	-12593
▁experiencing	-12594
dun	-12595
inn	-12596
èró	-12597
ọrọ	-12598
aint	-12599
alẹ́	-12600
▁Gom	-12601
▁Ros	-12602
▁ing	-12603
▁Ìyè	-12604
▁àpè	-12605
ecess	-12606
▁Educ	-12607
▁Sime	-12608
▁stim	-12609
ternal	-12610
tility	-12611
▁Happy	-12612
▁Ruler	-12613
▁eaten	-12614
▁green	-12615
▁teens	-12616
▁ọ̀gbà	-12617
ulating	-12618
▁bọ̀rọ̀	-12619
▁discer	-12620
▁gúnlẹ̀	-12621
▁onísìn	-12622
▁reform	-12623
▁apologi	-12624
▁letting	-12625
▁olóṣèlú	-12626
▁cultures	-12627
▁forgiven	-12628
ogunlọ́gọ̀	-12629
▁sínágọ́gù	-12630
▁pẹ́kípẹ́kí	-12631
▁represents	-12632
▁sanctified	-12633
▁cultivating	-12634
▁disfellowshipp	-12635
▁Ù	-12636
▁Ú	-12637
rah	-12638
orah	-12639
tary	-12640
íìsì	-12641
▁Jas	-12642
▁túú	-12643
▁àlà	-12644
atani	-12645
mìísí	-12646
▁Bara	-12647
▁KÓKÓ	-12648
▁lean	-12649
▁Lábẹ́	-12650
▁globe	-12651
▁mọwọ́	-12652
▁ìṣìnà	-12653
racters	-12654
▁kùdìẹ̀	-12655
▁senses	-12656
▁badness	-12657
▁central	-12658
▁initial	-12659
▁commonly	-12660
▁memorial	-12661
▁voluntary	-12662
▁volunteer	-12663
▁expressing	-12664
▁application	-12665
MỌ	-12666
WA	-12667
òdì	-12668
▁Gé	-12669
▁jw	-12670
barì	-12671
osis	-12672
ríba	-12673
▁ìlò	-12674
angàn	-12675
díwọ́	-12676
▁Rose	-12677
▁bóun	-12678
▁cure	-12679
▁hall	-12680
▁pity	-12681
▁Ọkọ̀	-12682
▁Káwọn	-12683
▁Láyọ̀	-12684
▁board	-12685
▁fifty	-12686
▁overt	-12687
▁solve	-12688
▁speed	-12689
▁taxes	-12690
▁àkójọ	-12691
▁breath	-12692
▁headed	-12693
▁plenty	-12694
▁nuclear	-12695
▁ọlọ́dún	-12696
formation	-12697
▁jealousy	-12698
▁ìgbàlódé	-12699
tification	-12700
▁afternoon	-12701
▁alárinrin	-12702
▁declaring	-12703
▁hardships	-12704
▁obstacles	-12705
▁separated	-12706
▁thoroughly	-12707
▁understands	-12708
ado	-12709
ids	-12710
kod	-12711
oṣù	-12712
ǹle	-12713
▁49	-12714
▁Jà	-12715
lets	-12716
▁Wil	-12717
▁adé	-12718
▁Eric	-12719
▁Jack	-12720
▁náwó	-12721
▁ours	-12722
▁àìló	-12723
abetes	-12724
▁2003,	-12725
▁Angel	-12726
▁party	-12727
▁paths	-12728
▁Ọ̀run	-12729
▁Peteru	-12730
▁Wisdom	-12731
▁arrive	-12732
▁fright	-12733
▁unwise	-12734
▁contrad	-12735
▁demands	-12736
▁exclaim	-12737
▁objects	-12738
▁definite	-12739
▁equipped	-12740
▁function	-12741
▁produces	-12742
▁ìpolongo	-12743
▁Olùṣàkóso	-12744
▁Bẹ́tílẹ́hẹ́mù	-12745
tr	-12746
rees	-12747
tọ́d	-12748
vies	-12749
zers	-12750
▁Che	-12751
▁Élí	-12752
aling	-12753
▁fing	-12754
▁tira	-12755
ọ́ọ̀mù	-12756
▁Artic	-12757
▁Bóásì	-12758
▁Lines	-12759
▁Maced	-12760
▁armed	-12761
▁fiery	-12762
▁space	-12763
▁towns	-12764
▁Àríwá	-12765
▁ṣèèṣì	-12766
▁Samson	-12767
▁extend	-12768
▁namely	-12769
▁Knowing	-12770
▁exalted	-12771
▁fìgboyà	-12772
▁ìfọ̀kàn	-12773
▁Sefanáyà	-12774
▁dáńgájíá	-12775
▁presents	-12776
▁pursuits	-12777
▁Benjamini	-12778
▁sentenced	-12779
▁aláìṣòdodo	-12780
▁distributed	-12781
▁ìfọ̀kànbalẹ̀	-12782
YÀ	-12783
air	-12784
Many	-12785
borí	-12786
kìtì	-12787
opọ̀	-12788
▁cas	-12789
▁ìtú	-12790
chers	-12791
icken	-12792
▁145:	-12793
▁1999	-12794
▁2001	-12795
▁scar	-12796
▁Louis	-12797
▁Móábù	-12798
▁Paulu	-12799
▁ahoro	-12800
▁upper	-12801
▁ìlara	-12802
▁ìmísí	-12803
onement	-12804
▁Ráhábù	-12805
▁bronze	-12806
▁indust	-12807
▁Ọ́tọ́d	-12808
▁Belgium	-12809
▁deserve	-12810
▁ìlẹ̀kùn	-12811
ributions	-12812
▁supposed	-12813
▁ìhámọ́ra	-12814
▁Institute	-12815
▁recommend	-12816
▁zealously	-12817
▁characters	-12818
▁disappointed	-12819
▁specifically	-12820
▁Ọ́tọ́dọ́ọ̀sì	-12821
lle	-12822
ṣọ̀	-12823
máná	-12824
▁awò	-12825
fihàn	-12826
night	-12827
▁Kìkì	-12828
▁alle	-12829
▁fòyà	-12830
▁immi	-12831
▁lèmi	-12832
▁phra	-12833
bition	-12834
cribed	-12835
valent	-12836
▁Index	-12837
▁autom	-12838
▁bears	-12839
▁diagn	-12840
▁mixed	-12841
▁needy	-12842
▁swall	-12843
▁vigor	-12844
▁Eagles	-12845
▁Númérì	-12846
▁duties	-12847
▁supers	-12848
ologists	-12849
▁Numbers	-12850
▁Washing	-12851
▁appoint	-12852
▁avoided	-12853
▁viewing	-12854
▁onímìísí	-12855
▁politics	-12856
▁warnings	-12857
▁confirmed	-12858
▁rendering	-12859
dínláàádọ́rin	-12860
▁courageously	-12861
SÙ	-12862
gbí	-12863
quis	-12864
tist	-12865
Ìfẹ́	-12866
vored	-12867
▁Hung	-12868
▁anni	-12869
▁ease	-12870
▁Syria	-12871
▁fàájì	-12872
▁Àwùjọ	-12873
▁assume	-12874
▁harlot	-12875
▁online	-12876
▁status	-12877
▁wishes	-12878
▁ṣàjèjì	-12879
▁Efraimu	-12880
▁islands	-12881
▁ìyọ̀ǹda	-12882
▁Jeroboam	-12883
▁memories	-12884
▁increasingly	-12885
▁overwhelming	-12886
▁extraordinary	-12887
▁kẹ́lẹ́yàmẹ̀yà	-12888
IP	-12889
ọnù	-12890
▁Ur	-12891
back	-12892
opot	-12893
usts	-12894
▁Sud	-12895
▁kno	-12896
fíìkì	-12897
ircum	-12898
▁Jane	-12899
▁bébà	-12900
▁vary	-12901
idence	-12902
▁kudiẹ	-12903
▁trump	-12904
▁Ìpàdé	-12905
ointing	-12906
▁Provid	-12907
▁fíìfíì	-12908
▁spring	-12909
▁Himself	-12910
▁obvious	-12911
▁Josephus	-12912
▁improper	-12913
▁àádọ́rùn	-12914
br	-12915
uf	-12916
IFE	-12917
PỌ̀	-12918
See	-12919
see	-12920
▁Hí	-12921
▁Cap	-12922
▁Ewu	-12923
alled	-12924
ayẹyẹ	-12925
▁Feel	-12926
▁exha	-12927
▁ikùn	-12928
▁soci	-12929
▁súre	-12930
▁Ìtẹ̀	-12931
▁ṣòwò	-12932
▁Nísàn	-12933
▁Tẹ̀mí	-12934
▁dread	-12935
▁wẹ́kú	-12936
▁Divine	-12937
▁clouds	-12938
▁títayọ	-12939
▁gaining	-12940
▁ẹ̀ẹ̀kan	-12941
▁accommod	-12942
▁statutes	-12943
▁deception	-12944
▁belongings	-12945
▁comparison	-12946
▁difficulty	-12947
▁fulfilling	-12948
▁manifested	-12949
▁communities	-12950
ogí	-12951
ona	-12952
rey	-12953
xes	-12954
001,	-12955
amin	-12956
gbòó	-12957
gírí	-12958
▁72:	-12959
▁Met	-12960
▁adì	-12961
eland	-12962
hable	-12963
ville	-12964
▁Hágá	-12965
▁kòtò	-12966
▁tòsí	-12967
▁ńbẹ̀	-12968
dandan	-12969
nified	-12970
▁armor	-12971
▁waves	-12972
▁ÈÈYÀN	-12973
▁àpérò	-12974
▁Potogí	-12975
▁300001,	-12976
▁Challen	-12977
▁Lórílẹ̀	-12978
▁despair	-12979
▁expects	-12980
▁kẹ́míkà	-12981
▁tobacco	-12982
▁chariots	-12983
▁entirely	-12984
▁incident	-12985
▁Knowledge	-12986
▁Meanwhile	-12987
▁positions	-12988
▁homosexual	-12989
▁kánjúkánjú	-12990
dínlọ́gọ́rin	-12991
▁ẹ̀ẹ́dẹ́gbẹ̀	-12992
▁58	-12993
atẹn	-12994
etic	-12995
long	-12996
seen	-12997
▁Sto	-12998
▁pil	-12999
▁spr	-13000
▁èpò	-13001
asphe	-13002
▁fóun	-13003
▁sear	-13004
▁tren	-13005
▁tára	-13006
stance	-13007
▁Count	-13008
▁dẹ́rù	-13009
▁foods	-13010
▁gbèrú	-13011
▁match	-13012
▁músẹ́	-13013
▁shout	-13014
▁òjìji	-13015
atẹnirò	-13016
▁Milton	-13017
▁harmon	-13018
▁native	-13019
▁preser	-13020
▁remote	-13021
▁ìdáǹdè	-13022
▁Answers	-13023
▁Purpose	-13024
▁aggress	-13025
▁gbígbọ́	-13026
▁látọkàn	-13027
▁surgery	-13028
▁òdìkejì	-13029
▁footnote	-13030
▁intimate	-13031
▁governing	-13032
▁teenagers	-13033
▁earthquake	-13034
▁maintained	-13035
▁originally	-13036
▁paragraphs	-13037
▁philosophy	-13038
▁technology	-13039
▁expectation	-13040
▁intelligent	-13041
▁miraculously	-13042
iz	-13043
lla	-13044
ìkì	-13045
ùbá	-13046
▁Gó	-13047
▁MY	-13048
fire	-13049
mónì	-13050
rene	-13051
Ẹ̀mí	-13052
▁45:	-13053
itual	-13054
lovak	-13055
yally	-13056
ṣooṣù	-13057
▁Jésí	-13058
▁LÓRÍ	-13059
▁bott	-13060
▁shek	-13061
▁virt	-13062
▁Ísọ̀	-13063
▁Maked	-13064
▁Nisan	-13065
▁Rahab	-13066
▁grace	-13067
▁ríṣẹ́	-13068
▁Yorùbá	-13069
▁conver	-13070
▁reconc	-13071
▁repair	-13072
▁Develop	-13073
▁Medical	-13074
▁classes	-13075
▁recover	-13076
▁weather	-13077
▁projects	-13078
▁sexually	-13079
▁ìmọ́tótó	-13080
dúróṣinṣin	-13081
▁Oríṣiríṣi	-13082
▁ajẹ́jẹ̀ẹ́	-13083
▁commended	-13084
▁Washington	-13085
▁assemblies	-13086
▁attractive	-13087
oti	-13088
oye	-13089
íni	-13090
▁FI	-13091
▁gẹ	-13092
aret	-13093
gàgà	-13094
ánid	-13095
ìsàn	-13096
▁Tam	-13097
▁mel	-13098
▁Ásà	-13099
iment	-13100
ṣọ̀ọ́	-13101
▁2003	-13102
▁Come	-13103
▁Kind	-13104
▁aláà	-13105
▁dídì	-13106
▁kẹjọ	-13107
▁níbì	-13108
▁wíwú	-13109
▁ìṣọ̀	-13110
fíndọ̀	-13111
ourish	-13112
▁1998,	-13113
▁Gabri	-13114
▁dunjú	-13115
▁upset	-13116
▁ìkejì	-13117
▁Modern	-13118
▁errors	-13119
▁latter	-13120
▁therap	-13121
▁Finland	-13122
▁Lessons	-13123
▁loyally	-13124
enúnibíni	-13125
▁heritage	-13126
▁mànàmáná	-13127
▁considers	-13128
▁perfectly	-13129
▁synagogue	-13130
▁ÌKẸ́KỌ̀Ọ́	-13131
▁explaining	-13132
!,	-13133
pen	-13134
rat	-13135
ròó	-13136
▁Eb	-13137
JÁDE	-13138
pẹrẹ	-13139
rúkù	-13140
upid	-13141
urse	-13142
▁Bol	-13143
▁Eti	-13144
▁iyè	-13145
▁ìra	-13146
ables	-13147
ọ́lẹ̀	-13148
▁neck	-13149
fọ̀rọ̀	-13150
▁Abiga	-13151
▁Thank	-13152
▁ekuru	-13153
▁lines	-13154
▁prize	-13155
▁sland	-13156
▁snare	-13157
▁stage	-13158
▁síṣẹ́	-13159
ructive	-13160
tituted	-13161
▁larger	-13162
▁lọ́sàn	-13163
▁Sábáàtì	-13164
▁besides	-13165
▁agbéraga	-13166
▁àwòkọ́ṣe	-13167
▁trustworthy	-13168
▁accompanying	-13169
Ká	-13170
uts	-13171
òórá	-13172
▁32,	-13173
▁Tog	-13174
▁bóo	-13175
dégbà	-13176
ààrọ̀	-13177
▁Arth	-13178
▁LIFE	-13179
▁drag	-13180
▁pẹrẹ	-13181
▁torn	-13182
▁winá	-13183
▁ọ̀dà	-13184
mother	-13185
▁Judge	-13186
▁roman	-13187
▁wages	-13188
▁wings	-13189
▁àtinú	-13190
▁crowds	-13191
▁crying	-13192
▁fierce	-13193
▁sọ́run	-13194
▁ìjókòó	-13195
▁bẹ́ẹ̀dì	-13196
▁egbòogi	-13197
▁qualify	-13198
▁systems	-13199
▁àyànfẹ́	-13200
▁Japanese	-13201
▁joyfully	-13202
▁níbikíbi	-13203
▁attracted	-13204
▁awuyewuye	-13205
▁marriages	-13206
lélọ́gọ́rin	-13207
40	-13208
ns	-13209
ÒR	-13210
bai	-13211
cra	-13212
fẹ̀	-13213
oto	-13214
▁AM	-13215
▁Bẹ	-13216
wọlé	-13217
Ọjọ́	-13218
▁bud	-13219
Young	-13220
▁fasc	-13221
▁hind	-13222
▁rówó	-13223
ránṣẹ́	-13224
▁2018,	-13225
▁Paulo	-13226
▁defin	-13227
edekiah	-13228
▁Buhari	-13229
▁devour	-13230
▁kàmàmà	-13231
▁myster	-13232
▁tragic	-13233
▁ọ̀mùtí	-13234
▁abẹ́rẹ́	-13235
▁endless	-13236
▁kidnapp	-13237
▁Speaking	-13238
▁detailed	-13239
▁interven	-13240
▁Throughout	-13241
▁adolescent	-13242
▁Association	-13243
▁householder	-13244
▁Interestingly	-13245
jè	-13246
irt	-13247
enth	-13248
ican	-13249
kisá	-13250
odex	-13251
otle	-13252
▁Eff	-13253
▁Òní	-13254
▁àwá	-13255
onday	-13256
ánábà	-13257
ǹbáyé	-13258
ẹ́rẹ́	-13259
▁Fred	-13260
▁igbá	-13261
▁káyé	-13262
▁rẹwà	-13263
▁tact	-13264
▁ṣiyè	-13265
▁Drama	-13266
▁Làwọn	-13267
▁kúnnú	-13268
▁rọgbọ	-13269
▁àwọ̀n	-13270
▁Bárúkù	-13271
▁Island	-13272
▁commer	-13273
▁pààyàn	-13274
▁winter	-13275
▁àléébù	-13276
▁ìgboro	-13277
▁Nineveh	-13278
▁worldly	-13279
▁boldness	-13280
▁lárinrin	-13281
▁mentions	-13282
▁glorified	-13283
▁affliction	-13284
▁correspond	-13285
▁highlights	-13286
▁surprising	-13287
▁devastating	-13288
▁distinguish	-13289
▁commendation	-13290
▁professional	-13291
!’”	-13292
ípé	-13293
ẹja	-13294
▁75	-13295
▁—⁠	-13296
mọdé	-13297
nínú	-13298
▁Alẹ	-13299
▁Imm	-13300
▁Inf	-13301
▁Àyà	-13302
areth	-13303
bring	-13304
istan	-13305
onely	-13306
sight	-13307
▁Kena	-13308
▁aven	-13309
▁ment	-13310
ricult	-13311
▁sísan	-13312
▁taste	-13313
▁ìṣirò	-13314
▁outcry	-13315
▁prompt	-13316
▁restra	-13317
▁ìrẹ́jẹ	-13318
▁ìyànjú	-13319
▁Alẹkisá	-13320
▁Reading	-13321
▁abusive	-13322
▁crushed	-13323
▁gbàgbọ́	-13324
▁haughty	-13325
▁ṣèdíwọ́	-13326
▁Faithful	-13327
▁Maintain	-13328
▁industri	-13329
▁meantime	-13330
▁producing	-13331
▁confronted	-13332
▁struggling	-13333
▁temptations	-13334
▁considerable	-13335
Mú	-13336
She	-13337
azed	-13338
oore	-13339
resa	-13340
▁Aya	-13341
▁jọ̀	-13342
▁Ìjì	-13343
Those	-13344
gbòdì	-13345
ọ̀fẹ́	-13346
ọ́pọ̀	-13347
▁Amaz	-13348
▁Samu	-13349
▁dóko	-13350
▁múná	-13351
▁soft	-13352
geance	-13353
jọ̀dún	-13354
▁asser	-13355
▁rírìn	-13356
▁Ìwọ̀n	-13357
iration	-13358
▁driver	-13359
▁angelic	-13360
▁follows	-13361
▁ongoing	-13362
▁Nísinsin	-13363
▁Watching	-13364
▁advanced	-13365
▁consumed	-13366
▁striving	-13367
▁alongside	-13368
▁ojúkòkòrò	-13369
▁operation	-13370
▁prospects	-13371
▁pọndandan	-13372
▁admonished	-13373
▁classmates	-13374
▁ṣenúnibíni	-13375
▁presentation	-13376
▁supplication	-13377
▁ìbẹ̀rẹ̀pẹ̀pẹ̀	-13378
▁níwọ̀ntúnwọ̀nsì	-13379
lim	-13380
ùwà	-13381
▁(3	-13382
fted	-13383
happ	-13384
itor	-13385
oned	-13386
ores	-13387
rera	-13388
yege	-13389
únná	-13390
▁Lis	-13391
▁Obs	-13392
▁kun	-13393
▁tro	-13394
hòòhò	-13395
ushed	-13396
ùngbẹ	-13397
▁Dádì	-13398
▁bath	-13399
▁gbòò	-13400
▁inac	-13401
▁pépé	-13402
▁exile	-13403
▁grows	-13404
▁roads	-13405
▁àtìpó	-13406
▁Office	-13407
▁Orísun	-13408
▁pààrọ̀	-13409
▁Mesopot	-13410
▁affects	-13411
▁blasphe	-13412
▁concept	-13413
▁hesitate	-13414
▁previous	-13415
▁sleeping	-13416
▁commented	-13417
▁expensive	-13418
▁tẹ̀síwájú	-13419
▁neutrality	-13420
▁proclaimed	-13421
▁traditions	-13422
▁appreciative	-13423
TA	-13424
àmì	-13425
bara	-13426
held	-13427
isẹ́	-13428
rewd	-13429
▁ọfà	-13430
gbèje	-13431
olówó	-13432
túmọ̀	-13433
▁Mass	-13434
▁Pier	-13435
▁WHEN	-13436
▁elev	-13437
▁gàgà	-13438
dọ́wọ́	-13439
▁1950,	-13440
▁ABOUT	-13441
▁funds	-13442
▁ideal	-13443
▁incom	-13444
▁sorry	-13445
▁tálẹ́	-13446
▁Ìrírí	-13447
▁Bánábà	-13448
▁ORÍLẸ̀	-13449
▁Sydney	-13450
▁Valley	-13451
▁gentle	-13452
▁kẹ́dùn	-13453
▁tọ́wọ́	-13454
▁ignored	-13455
▁Ìṣẹ̀lẹ̀	-13456
▁àtọ̀gbẹ	-13457
▁billions	-13458
▁cultural	-13459
lélọ́gọ́ta	-13460
▁Ojoojúmọ́	-13461
▁examining	-13462
▁proclaimers	-13463
▁unbelieving	-13464
itc	-13465
ńdé	-13466
▁rù	-13467
▁26;	-13468
▁sẹ̀	-13469
▁Éfé	-13470
beria	-13471
lùfẹ́	-13472
ndale	-13473
▁Greg	-13474
▁Joab	-13475
▁NÍPA	-13476
▁fowó	-13477
▁kápá	-13478
▁murm	-13479
▁ÌTẸ̀	-13480
atican	-13481
síhùwà	-13482
ticism	-13483
▁Sioni	-13484
▁pòórá	-13485
▁roots	-13486
▁àìdáa	-13487
▁ìkéde	-13488
▁girama	-13489
▁Ẹ́sírà	-13490
▁chronic	-13491
▁falling	-13492
▁periods	-13493
▁Nazareth	-13494
▁Yourself	-13495
▁respects	-13496
▁adversity	-13497
▁ìfọkànsìn	-13498
▁Illustrate	-13499
▁continuing	-13500
▁displaying	-13501
▁priesthood	-13502
▁translators	-13503
Am	-13504
JỌ́	-13505
kud	-13506
túú	-13507
▁Ai	-13508
▁Id	-13509
ardo	-13510
kudà	-13511
letò	-13512
▁110	-13513
▁33,	-13514
▁Ave	-13515
▁era	-13516
lùmọ̀	-13517
▁Hand	-13518
▁Kété	-13519
▁sọnù	-13520
▁wond	-13521
▁ìgbì	-13522
ishing	-13523
▁Jèhóá	-13524
▁Truly	-13525
▁nawọ́	-13526
▁rebel	-13527
▁repay	-13528
▁sites	-13529
▁spect	-13530
▁worst	-13531
▁ìpele	-13532
▁Descri	-13533
▁Leader	-13534
▁oldest	-13535
▁Erékùṣù	-13536
▁adolesc	-13537
▁climate	-13538
▁irinṣẹ́	-13539
▁ìpèníjà	-13540
▁reserved	-13541
▁strongly	-13542
▁associating	-13543
▁backgrounds	-13544
▁highlighted	-13545
▁disappointment	-13546
hí	-13547
bad	-13548
bit	-13549
car	-13550
píà	-13551
ula	-13552
▁Dè	-13553
▁WA	-13554
jọ́r	-13555
they	-13556
yamọ	-13557
▁Cri	-13558
▁Lag	-13559
▁Ten	-13560
▁mir	-13561
gency	-13562
ésárì	-13563
▁Mord	-13564
▁gìrì	-13565
▁jíjí	-13566
▁legs	-13567
▁ling	-13568
▁Ìran	-13569
▁àìsí	-13570
zabeth	-13571
▁1919,	-13572
▁ẹ̀dọ̀	-13573
▁deceit	-13574
▁yẹpẹrẹ	-13575
▁Òpìtàn	-13576
gbòdìyàn	-13577
▁Kenaani	-13578
▁Vatican	-13579
▁employe	-13580
▁ìsẹ̀lẹ̀	-13581
▁everyday	-13582
▁mistreat	-13583
▁praising	-13584
▁ÌTẸ̀JÁDE	-13585
▁Ìyàlẹ́nu	-13586
▁Aristotle	-13587
▁Certainly	-13588
▁stumbling	-13589
ORY	-13590
RIN	-13591
olo	-13592
ère	-13593
rets	-13594
rite	-13595
teen	-13596
▁41.	-13597
▁Dáa	-13598
▁Ibù	-13599
▁Mas	-13600
▁MÍÌ	-13601
▁Màá	-13602
▁Èrè	-13603
▁àkà	-13604
aming	-13605
kígbà	-13606
▁Amal	-13607
▁aájò	-13608
▁deny	-13609
▁flow	-13610
▁lílò	-13611
▁plun	-13612
▁èébú	-13613
▁ìkún	-13614
lógbòó	-13615
▁láìdá	-13616
▁Branch	-13617
▁Johann	-13618
▁Rehobo	-13619
▁kèfèrí	-13620
▁occurs	-13621
▁ọlọ́lá	-13622
▁Tyndale	-13623
▁dismiss	-13624
▁enlight	-13625
▁happily	-13626
▁immense	-13627
▁olùgbọ́	-13628
▁soldier	-13629
oneliness	-13630
▁Creation	-13631
▁attacked	-13632
▁believer	-13633
▁centered	-13634
▁selected	-13635
▁favorable	-13636
▁spiritism	-13637
▁sustained	-13638
▁disposition	-13639
▁illustrated	-13640
▁perspective	-13641
LY	-13642
!""	-13643
ium	-13644
mil	-13645
pan	-13646
sey	-13647
▁VI	-13648
▁ps	-13649
báyé	-13650
unch	-13651
▁Bur	-13652
▁MAT	-13653
ensen	-13654
gọ́fà	-13655
house	-13656
ubodè	-13657
▁kùtù	-13658
▁obsc	-13659
gbádùn	-13660
usions	-13661
▁Túbọ̀	-13662
▁atten	-13663
▁ships	-13664
▁tiyín	-13665
▁Àìsàn	-13666
▁àríyá	-13667
paganda	-13668
▁Psalms	-13669
▁Sódómù	-13670
▁kíkorò	-13671
▁ritual	-13672
▁rọ́wọ́	-13673
▁utmost	-13674
▁burdens	-13675
▁feeding	-13676
▁teenage	-13677
▁ṣọ́ọ̀bù	-13678
▁lifetime	-13679
▁refugees	-13680
▁tempered	-13681
▁thrilled	-13682
▁Elizabeth	-13683
▁ìnìkàngbé	-13684
▁neighborhood	-13685
▁àtọwọ́dọ́wọ́	-13686
Wh	-13687
BER	-13688
ayà	-13689
múṣé	-13690
othe	-13691
risy	-13692
tull	-13693
▁adj	-13694
léèwé	-13695
▁Park	-13696
▁dọmọ	-13697
▁gosp	-13698
▁rírú	-13699
igaret	-13700
▁1945,	-13701
▁Jesse	-13702
▁bonds	-13703
▁Ẹ̀KỌ́	-13704
essions	-13705
gbẹ́yín	-13706
ologist	-13707
▁couldn	-13708
▁túútúú	-13709
▁jóòótọ́	-13710
▁silence	-13711
▁traffic	-13712
▁tremend	-13713
▁version	-13714
▁Language	-13715
▁eternity	-13716
▁promoted	-13717
▁Understand	-13718
▁compromise	-13719
▁forefather	-13720
▁generosity	-13721
▁lẹ́sẹ̀kẹsẹ̀	-13722
70	-13723
TÌ	-13724
yo	-13725
hic	-13726
...”	-13727
búlé	-13728
rows	-13729
tite	-13730
uled	-13731
óníà	-13732
▁33;	-13733
▁Att	-13734
▁São	-13735
▁Tan	-13736
▁Tre	-13737
▁Vir	-13738
▁flu	-13739
▁Áté	-13740
rìírí	-13741
▁103:	-13742
▁Gene	-13743
▁Wàyí	-13744
▁duty	-13745
▁fuel	-13746
▁wave	-13747
sárétì	-13748
▁illeg	-13749
▁wálẹ̀	-13750
▁ìdènà	-13751
vestock	-13752
▁Michel	-13753
▁Priest	-13754
▁corner	-13755
▁gbígbẹ	-13756
▁safely	-13757
▁ìmoore	-13758
cipation	-13759
▁Imitate	-13760
▁backing	-13761
▁confirm	-13762
▁escaped	-13763
▁àgbàgbà	-13764
▁ẹnubodè	-13765
▁misunder	-13766
▁practicing	-13767
▁resentment	-13768
▁unfaithful	-13769
ipp	-13770
mel	-13771
▁Mẹ	-13772
▁TR	-13773
máṣe	-13774
tise	-13775
▁Oli	-13776
▁alt	-13777
▁àsá	-13778
ẹ́gùn	-13779
▁Maya	-13780
▁lamb	-13781
▁wéra	-13782
friend	-13783
nítorí	-13784
▁Madag	-13785
▁Susan	-13786
▁badly	-13787
▁amazed	-13788
▁olónìí	-13789
▁poison	-13790
▁stupid	-13791
▁virtue	-13792
entially	-13793
▁Tertull	-13794
▁killing	-13795
▁planted	-13796
▁Násárétì	-13797
▁entrance	-13798
▁inspiring	-13799
▁livestock	-13800
▁olùyọ̀ǹda	-13801
▁ìbẹ́mìílò	-13802
▁Protestant	-13803
▁contentment	-13804
fé	-13805
máwo	-13806
▁30;	-13807
▁Sac	-13808
▁lux	-13809
▁èsì	-13810
every	-13811
ister	-13812
ulner	-13813
▁koro	-13814
kéèyàn	-13815
ìnújẹ́	-13816
▁House	-13817
▁Korah	-13818
▁Lẹ́tà	-13819
▁Póòpù	-13820
▁mọṣẹ́	-13821
▁pàǹtí	-13822
sùnmáwo	-13823
▁consol	-13824
▁humili	-13825
▁paraku	-13826
▁Georgia	-13827
▁critici	-13828
▁jíjìnnà	-13829
▁láàárọ̀	-13830
▁shelter	-13831
▁staying	-13832
▁strange	-13833
▁sísàlẹ̀	-13834
▁watched	-13835
▁believes	-13836
▁domestic	-13837
▁handling	-13838
▁lẹ́sẹẹsẹ	-13839
▁offended	-13840
▁àìṣòdodo	-13841
▁delegates	-13842
▁desperate	-13843
▁sensitive	-13844
▁ṣèkẹ́kọ̀ọ́	-13845
▁destructive	-13846
Un	-13847
ici	-13848
law	-13849
rig	-13850
ìwé	-13851
▁Ev	-13852
▁Sk	-13853
adab	-13854
ales	-13855
bels	-13856
cont	-13857
kárí	-13858
lómù	-13859
ìhìn	-13860
▁130	-13861
▁83:	-13862
▁Cro	-13863
▁Lim	-13864
▁Àmì	-13865
▁ìlé	-13866
bilọ́	-13867
ishop	-13868
▁Bala	-13869
▁club	-13870
▁níta	-13871
▁palm	-13872
▁prey	-13873
▁tako	-13874
Please	-13875
itting	-13876
▁hopes	-13877
▁metal	-13878
▁risks	-13879
▁seeds	-13880
▁vivid	-13881
▁winds	-13882
▁àbáyọ	-13883
▁ètùtù	-13884
▁Ọ̀dọ̀	-13885
bilọ́lá	-13886
▁Likely	-13887
▁deaths	-13888
▁double	-13889
▁hoping	-13890
▁oppose	-13891
▁rising	-13892
▁ìdẹkùn	-13893
▁Abigail	-13894
▁Serving	-13895
▁dollars	-13896
▁forsake	-13897
▁urgency	-13898
▁Ìpínlẹ̀	-13899
▁ọlọ́jọ́	-13900
perienced	-13901
▁Teaching	-13902
▁fruitful	-13903
▁lọ́dọ̀ọ́	-13904
▁ṣèpalára	-13905
▁imitating	-13906
▁succeeded	-13907
▁accurately	-13908
▁kíkankíkan	-13909
▁messengers	-13910
▁ìbákẹ́gbẹ́	-13911
▁declaration	-13912
▁uncleanness	-13913
▁Consequently	-13914
▁associations	-13915
SÌ	-13916
Wá	-13917
May	-13918
hia	-13919
Make	-13920
Ọ̀nà	-13921
▁36:	-13922
▁Pac	-13923
▁owú	-13924
▁sky	-13925
antin	-13926
ọ̀pọ̀	-13927
▁bẹnu	-13928
▁deed	-13929
▁maid	-13930
▁yéni	-13931
dàkudà	-13932
sálómù	-13933
▁Lagos	-13934
▁penal	-13935
▁pésẹ̀	-13936
▁ranni	-13937
▁rooms	-13938
▁wọṣẹ́	-13939
▁Madrid	-13940
▁farmer	-13941
▁janjan	-13942
▁àgbàdo	-13943
▁ṣayẹyẹ	-13944
▁Council	-13945
▁Persian	-13946
▁hurtful	-13947
▁ìmìtìtì	-13948
▁Olùgbàlà	-13949
▁homeland	-13950
▁industry	-13951
▁enjoyable	-13952
▁permitted	-13953
▁Canaanites	-13954
▁requirement	-13955
▁conscientious	-13956
BÍ	-13957
ii	-13958
▁JO	-13959
ders	-13960
pled	-13961
ṣírí	-13962
ẹnus	-13963
▁Ash	-13964
▁WAS	-13965
▁amí	-13966
▁Ìjà	-13967
5,000	-13968
comed	-13969
ighed	-13970
rises	-13971
▁Borí	-13972
▁Mold	-13973
▁Scot	-13974
▁Vulg	-13975
▁buyì	-13976
▁wewu	-13977
▁ìsọ̀	-13978
▁Ọmọn	-13979
crimin	-13980
▁Story	-13981
▁treas	-13982
▁yíyan	-13983
inésárì	-13984
ṣàpẹẹrẹ	-13985
▁Amalek	-13986
▁lonely	-13987
▁proced	-13988
▁saving	-13989
▁tiraka	-13990
▁Denmark	-13991
▁lódindi	-13992
▁àjọ̀dún	-13993
▁attempts	-13994
▁breaking	-13995
▁exception	-13996
▁favorably	-13997
▁pleasures	-13998
▁Tertullian	-13999
▁ìrònúpìwàdà	-14000
▁ìjùmọ̀sọ̀rọ̀	-14001
vd	-14002
Fún	-14003
OUN	-14004
aka	-14005
ano	-14006
arm	-14007
ayọ	-14008
leè	-14009
rol	-14010
▁QU	-14011
▁mè	-14012
▁rè	-14013
▁Ìt	-14014
Iṣẹ́	-14015
gent	-14016
iwan	-14017
omed	-14018
sìkí	-14019
▁Ahi	-14020
▁Kat	-14021
▁Non	-14022
▁Oly	-14023
▁Miss	-14024
▁cool	-14025
▁múpò	-14026
▁susp	-14027
▁Ààrẹ	-14028
igning	-14029
rative	-14030
▁Helen	-14031
▁falẹ̀	-14032
▁fohùn	-14033
▁naked	-14034
▁sixth	-14035
▁spoil	-14036
▁vehic	-14037
parents	-14038
▁Arthur	-14039
▁Taiwan	-14040
▁Volume	-14041
▁fascin	-14042
▁káàbọ̀	-14043
▁washed	-14044
▁Islands	-14045
▁cigaret	-14046
▁filling	-14047
▁founded	-14048
▁fọ́ọ̀mù	-14049
▁dramatic	-14050
▁headship	-14051
▁improved	-14052
▁welcomed	-14053
▁intention	-14054
▁spreading	-14055
dínlọ́gọ́ta	-14056
▁references	-14057
▁appointment	-14058
▁recognition	-14059
▁organizations	-14060
▁Nebukadinésárì	-14061
TS	-14062
Yes	-14063
réè	-14064
zen	-14065
▁LÉ	-14066
▁Ìb	-14067
Here	-14068
inda	-14069
love	-14070
make	-14071
rupt	-14072
zech	-14073
ópíà	-14074
▁46:	-14075
▁Elé	-14076
▁Sen	-14077
▁awe	-14078
▁bíb	-14079
pẹ̀lú	-14080
urbed	-14081
àkókò	-14082
▁Corn	-14083
▁FROM	-14084
▁Food	-14085
▁Poly	-14086
▁Zeal	-14087
▁agbó	-14088
▁span	-14089
▁stab	-14090
▁títì	-14091
bínibí	-14092
kọ́rọ́	-14093
▁Czech	-14094
▁Nabal	-14095
▁loose	-14096
▁teeth	-14097
▁tents	-14098
▁tìkọ̀	-14099
gressed	-14100
▁Golden	-14101
▁Sandra	-14102
▁akọrin	-14103
▁convey	-14104
▁ìdúpẹ́	-14105
asonable	-14106
▁Etiópíà	-14107
▁Neither	-14108
▁astrolo	-14109
▁execute	-14110
▁làákàyè	-14111
▁offense	-14112
▁praised	-14113
▁Sámúsìnì	-14114
▁formerly	-14115
▁lọ́ṣọ̀ọ́	-14116
▁olólùfẹ́	-14117
▁ordinary	-14118
▁ìmúratán	-14119
▁guarantee	-14120
▁Ábúsálómù	-14121
▁materially	-14122
▁worthwhile	-14123
200	-14124
INE	-14125
Yóò	-14126
▁IR	-14127
▁gọ	-14128
bálì	-14129
dekè	-14130
edar	-14131
onto	-14132
uses	-14133
áàsì	-14134
óòlù	-14135
▁43.	-14136
▁Jab	-14137
▁Kim	-14138
▁aṣe	-14139
▁irè	-14140
▁lat	-14141
▁una	-14142
ahoro	-14143
isher	-14144
▁ńlẹ̀	-14145
kàdekè	-14146
lights	-14147
▁await	-14148
▁cheer	-14149
▁kòṣeé	-14150
▁linen	-14151
▁àṣejù	-14152
kọọ́lẹ̀	-14153
ìpọ́njú	-14154
▁10,000	-14155
▁Govern	-14156
▁Histor	-14157
▁Manase	-14158
▁Middle	-14159
▁Monday	-14160
▁Origin	-14161
▁Streng	-14162
▁Taking	-14163
▁desert	-14164
▁golden	-14165
▁lament	-14166
▁presum	-14167
▁Success	-14168
▁cutting	-14169
▁entering	-14170
▁honestly	-14171
▁partners	-14172
▁passages	-14173
▁ìgbẹ́jọ́	-14174
▁belonging	-14175
▁resurrect	-14176
▁thrilling	-14177
▁Nísinsìnyí	-14178
▁ìṣarasíhùwà	-14179
▁independence	-14180
yd	-14181
ria	-14182
egun	-14183
ethe	-14184
fátì	-14185
iana	-14186
valu	-14187
▁Sid	-14188
▁Tok	-14189
▁hán	-14190
▁jab	-14191
▁ỌMỌ	-14192
heast	-14193
jọ́rò	-14194
pless	-14195
▁1950	-14196
▁Naam	-14197
▁diss	-14198
▁goat	-14199
▁onto	-14200
fàìmọ̀	-14201
remère	-14202
yọrísí	-14203
▁2004,	-14204
▁conve	-14205
▁enorm	-14206
▁hills	-14207
▁wéwèé	-14208
emplary	-14209
▁Origen	-14210
▁weaken	-14211
▁ìfẹsẹ̀	-14212
▁látọjọ́	-14213
▁paralle	-14214
▁precise	-14215
▁product	-14216
▁rapidly	-14217
▁section	-14218
▁vessels	-14219
▁creative	-14220
▁diabetes	-14221
▁párádísè	-14222
▁unnecess	-14223
▁ẹlẹ́gbin	-14224
▁emphasized	-14225
▁productive	-14226
▁reflecting	-14227
▁tremendous	-14228
akh	-14229
alé	-14230
apt	-14231
lán	-14232
oph	-14233
ova	-14234
▁Ri	-14235
▁ÌL	-14236
from	-14237
hásì	-14238
lékì	-14239
onio	-14240
phan	-14241
óòtù	-14242
▁MAR	-14243
▁SEE	-14244
▁WHO	-14245
▁bic	-14246
▁map	-14247
▁ẸNI	-14248
endar	-14249
force	-14250
ẹnusọ	-14251
▁pàbó	-14252
▁sálọ	-14253
▁táyé	-14254
▁vind	-14255
▁Const	-14256
▁Haiti	-14257
▁Kenya	-14258
▁cycle	-14259
▁Jọ̀wọ́	-14260
▁kéréje	-14261
▁léèmọ̀	-14262
▁narrow	-14263
▁slowly	-14264
▁vulner	-14265
▁Studies	-14266
▁charged	-14267
▁Jehoiada	-14268
▁foremost	-14269
▁severely	-14270
▁siblings	-14271
▁starting	-14272
▁ìgbẹ̀yìn	-14273
▁brotherly	-14274
▁equipment	-14275
▁Theocratic	-14276
▁leadership	-14277
”;	-14278
GẸ́	-14279
hai	-14280
sow	-14281
▁MA	-14282
▁RÍ	-14283
cast	-14284
cept	-14285
eans	-14286
esti	-14287
inal	-14288
kéte	-14289
life	-14290
▁Die	-14291
▁Gad	-14292
▁Igi	-14293
▁Rob	-14294
▁ewì	-14295
▁mot	-14296
guing	-14297
yìnbó	-14298
▁aláb	-14299
▁brut	-14300
▁dict	-14301
Gẹ́gẹ́	-14302
Ènìyàn	-14303
▁flour	-14304
▁incor	-14305
▁jíhìn	-14306
▁tract	-14307
quisite	-14308
▁adding	-14309
▁collap	-14310
▁dreams	-14311
▁empire	-14312
▁lorúkọ	-14313
▁paraly	-14314
▁strate	-14315
▁tàbùkù	-14316
▁urgent	-14317
▁ṣékélì	-14318
cription	-14319
gbẹjọ́rò	-14320
▁unknown	-14321
▁wearing	-14322
▁àtinúwá	-14323
▁advertis	-14324
▁avoiding	-14325
▁interpre	-14326
▁mèremère	-14327
▁nítòótọ́	-14328
▁parental	-14329
▁rebelled	-14330
▁romantic	-14331
▁Makedóníà	-14332
▁diligently	-14333
▁illustrates	-14334
▁Thessalonica	-14335
▁mọ́kànlélógún	-14336
Lọ	-14337
vie	-14338
ǹkí	-14339
wìrì	-14340
yalé	-14341
ánilò	-14342
▁Hans	-14343
▁Self	-14344
▁kúrú	-14345
▁ring	-14346
▁wand	-14347
míyalé	-14348
ursday	-14349
▁akọni	-14350
▁jíǹkí	-14351
▁radio	-14352
lective	-14353
▁Asiria	-14354
▁Mordec	-14355
▁Rights	-14356
▁commem	-14357
▁decree	-14358
▁eighth	-14359
▁infant	-14360
▁láfiwé	-14361
▁scroll	-14362
▁sinner	-14363
▁sounds	-14364
▁strife	-14365
▁undert	-14366
▁ìṣiṣẹ́	-14367
▁Antonio	-14368
▁atẹ́gùn	-14369
▁counted	-14370
▁reduced	-14371
▁Brothers	-14372
▁magnific	-14373
▁prophesy	-14374
▁psycholo	-14375
▁reminder	-14376
▁somewhat	-14377
▁conquered	-14378
▁worthless	-14379
▁ẹlẹ́kọ̀ọ́	-14380
▁containing	-14381
▁intentions	-14382
▁university	-14383
▁ògbólógbòó	-14384
▁adúróṣánṣán	-14385
▁contribution	-14386
▁contributions	-14387
bọi	-14388
úlá	-14389
▁Hu	-14390
▁sẹ	-14391
Cont	-14392
cher	-14393
gbáá	-14394
jorí	-14395
tabo	-14396
▁35;	-14397
▁Alf	-14398
▁Cup	-14399
▁IYE	-14400
▁Mik	-14401
▁Mis	-14402
▁Táa	-14403
▁Wed	-14404
▁sli	-14405
▁àbà	-14406
▁ọmú	-14407
pẹ̀ẹ̀	-14408
stone	-14409
▁gírí	-14410
▁reac	-14411
▁stro	-14412
▁ẹ̀ya	-14413
cision	-14414
owered	-14415
wọnsẹ̀	-14416
▁crops	-14417
▁meals	-14418
▁Áténì	-14419
▁ìbímọ	-14420
▁ṣọ́nà	-14421
▁Ọ̀RỌ̀	-14422
akọtabo	-14423
▁Loving	-14424
▁Midian	-14425
▁banned	-14426
▁deadly	-14427
▁kẹ́gàn	-14428
▁polówó	-14429
pẹ̀ẹ̀pẹ́	-14430
ròtẹ́lẹ̀	-14431
▁typical	-14432
▁oníhòòhò	-14433
▁exercised	-14434
▁hypocrisy	-14435
▁initially	-14436
▁rògbòdìyàn	-14437
▁restoration	-14438
▁transferred	-14439
.—	-14440
mn	-14441
dal	-14442
gai	-14443
lan	-14444
mat	-14445
uku	-14446
ádó	-14447
ails	-14448
ṣojo	-14449
ṣòro	-14450
▁37,	-14451
▁lic	-14452
▁Àṣẹ	-14453
urata	-14454
▁2004	-14455
▁blow	-14456
▁tire	-14457
▁trap	-14458
▁títà	-14459
▁ÌTÀN	-14460
▁ọ̀já	-14461
brance	-14462
fẹ́fẹ́	-14463
▁Inter	-14464
▁depri	-14465
▁dimin	-14466
▁jùyẹn	-14467
▁kẹ́ni	-14468
▁láìṣe	-14469
▁noise	-14470
▁wáṣẹ́	-14471
▁Giving	-14472
▁cattle	-14473
▁disreg	-14474
▁rarely	-14475
▁ìṣúnná	-14476
▁Abimele	-14477
▁Mission	-14478
▁Whoever	-14479
▁nursing	-14480
▁session	-14481
▁weeping	-14482
▁Àpèjúwe	-14483
Olúkúlùkù	-14484
▁Mordecai	-14485
▁actively	-14486
▁dìdàkudà	-14487
▁employer	-14488
▁Afterward	-14489
▁cooperate	-14490
▁preachers	-14491
▁absolutely	-14492
▁commercial	-14493
▁respectful	-14494
▁undoubtedly	-14495
400	-14496
ams	-14497
árí	-14498
ṣíp	-14499
▁55	-14500
bour	-14501
illa	-14502
oyún	-14503
▁COR	-14504
▁òún	-14505
asion	-14506
▁Ahaz	-14507
▁assa	-14508
▁outl	-14509
pèjúwe	-14510
▁Joabu	-14511
▁Panos	-14512
▁ensla	-14513
▁gọbọi	-14514
▁irrit	-14515
▁laugh	-14516
▁nurse	-14517
▁olùwá	-14518
▁thief	-14519
athetic	-14520
warming	-14521
ọkùnrin	-14522
▁Bọ́rọ̀	-14523
▁chaste	-14524
▁káàánú	-14525
▁cleansed	-14526
▁helpless	-14527
▁perceive	-14528
▁purposed	-14529
▁resident	-14530
▁stressed	-14531
▁Catholics	-14532
▁Worldwide	-14533
▁graduates	-14534
▁materials	-14535
▁pregnancy	-14536
▁publisher	-14537
▁production	-14538
▁independent	-14539
▁méjìlélógún	-14540
▁Ẹgbẹẹgbẹ̀rún	-14541
▁kọkàndínlógún	-14542
▁pẹ́ẹ́pẹ̀ẹ̀pẹ́	-14543
ASA	-14544
ION	-14545
dis	-14546
ras	-14547
aleb	-14548
ráyé	-14549
rúbù	-14550
úúdà	-14551
▁32;	-14552
▁Bad	-14553
▁Bọ̀	-14554
▁wit	-14555
▁ìtẹ	-14556
anuel	-14557
ṣèfẹ́	-14558
▁Four	-14559
▁Hard	-14560
▁Wild	-14561
▁envy	-14562
▁látì	-14563
▁rara	-14564
▁wọni	-14565
tering	-14566
▁Chald	-14567
▁Daily	-14568
▁Júúdà	-14569
▁adopt	-14570
▁chann	-14571
▁gross	-14572
▁lọ́la	-14573
▁shape	-14574
▁weeds	-14575
▁àfiwé	-14576
▁Ẹ̀ṣẹ̀	-14577
lovakia	-14578
▁Nábálì	-14579
▁Report	-14580
▁Social	-14581
▁driven	-14582
▁reluct	-14583
▁resort	-14584
▁window	-14585
kọ̀ròyìn	-14586
▁Toronto	-14587
▁conquer	-14588
▁happier	-14589
▁implies	-14590
▁managed	-14591
▁planned	-14592
▁èròǹgbà	-14593
tóbilọ́lá	-14594
▁Minister	-14595
▁acquired	-14596
▁composed	-14597
▁kíkọyọyọ	-14598
▁normally	-14599
▁outright	-14600
▁protects	-14601
▁touching	-14602
▁concludes	-14603
▁greatness	-14604
▁distressed	-14605
▁gbígbàdúrà	-14606
▁earthquakes	-14607
▁recommended	-14608
▁márùndínlógójì	-14609
▁representatives	-14610
BA	-14611
mín	-14612
uff	-14613
èrò	-14614
ùdù	-14615
▁52	-14616
INGS	-14617
icks	-14618
kerò	-14619
wókù	-14620
▁Tab	-14621
TIONS	-14622
araló	-14623
dàgbà	-14624
hasis	-14625
wèésí	-14626
ánidá	-14627
▁1919	-14628
▁1997	-14629
▁Blvd	-14630
▁Cher	-14631
▁Peru	-14632
▁Them	-14633
▁blue	-14634
▁chat	-14635
▁drop	-14636
▁frag	-14637
▁láṣọ	-14638
lẹ́ńdà	-14639
▁gbére	-14640
▁kẹwàá	-14641
▁organ	-14642
▁route	-14643
▁àpèjẹ	-14644
bòmíràn	-14645
uration	-14646
áragàgà	-14647
▁Elders	-14648
▁actual	-14649
▁engine	-14650
▁gladly	-14651
▁saints	-14652
▁stable	-14653
▁waited	-14654
▁àkúnya	-14655
▁Gileadi	-14656
▁Samuẹli	-14657
▁caution	-14658
▁consume	-14659
▁Shepherd	-14660
▁belonged	-14661
▁ridicule	-14662
▁Samaritan	-14663
▁másùnmáwo	-14664
▁naturally	-14665
▁onímọtara	-14666
▁alternative	-14667
▁cooperation	-14668
▁frustration	-14669
▁látòkèdélẹ̀	-14670
▁commissioned	-14671
▁imperfections	-14672
SUE	-14673
mad	-14674
▁KÒ	-14675
▁bè	-14676
Will	-14677
láyá	-14678
rinà	-14679
rákì	-14680
▁700	-14681
▁Cyp	-14682
▁Jez	-14683
▁pes	-14684
▁ìlọ	-14685
inkin	-14686
joice	-14687
▁aláf	-14688
▁code	-14689
▁híhù	-14690
▁ṣírò	-14691
hedrin	-14692
jáwìrì	-14693
láyátì	-14694
▁1996,	-14695
▁Press	-14696
▁Words	-14697
▁fixed	-14698
▁round	-14699
▁sísin	-14700
▁Òdodo	-14701
Ọkùnrin	-14702
▁Lẹ́sẹ̀	-14703
▁Turkey	-14704
children	-14705
▁Appreci	-14706
▁cherish	-14707
▁empathy	-14708
▁gbọ́kàn	-14709
▁moments	-14710
▁pillars	-14711
▁refrain	-14712
▁threats	-14713
▁ọ̀gágun	-14714
▁Yearbook	-14715
▁infected	-14716
▁ìpànìyàn	-14717
▁Ọmọnìyàn	-14718
▁ọmọléèwé	-14719
▁distressing	-14720
▁territories	-14721
▁representative	-14722
MA	-14723
av	-14724
han	-14725
los	-14726
rel	-14727
▁AF	-14728
▁Gr	-14729
▁Tw	-14730
ERED	-14731
fúnn	-14732
jẹun	-14733
▁Aff	-14734
▁Six	-14735
▁WIT	-14736
▁sou	-14737
arded	-14738
human	-14739
iform	-14740
ṣẹ́kù	-14741
▁Spec	-14742
▁fare	-14743
▁tiny	-14744
▁tìdí	-14745
▁Ẹ̀ẹ̀	-14746
alized	-14747
ellect	-14748
▁Loyal	-14749
▁Minor	-14750
▁Money	-14751
▁aston	-14752
▁threw	-14753
▁wọ̀nà	-14754
▁ṣúlẹ̀	-14755
▁Isaaki	-14756
▁Johanu	-14757
▁Uganda	-14758
▁accoun	-14759
▁greedy	-14760
▁pounds	-14761
▁retain	-14762
▁spared	-14763
▁Ìkìlọ̀	-14764
etheless	-14765
▁Hungary	-14766
▁Insight	-14767
▁adverse	-14768
▁donated	-14769
▁largely	-14770
▁stating	-14771
▁tablets	-14772
▁tágbára	-14773
criptural	-14774
▁Gòláyátì	-14775
▁argument	-14776
▁combined	-14777
▁defeated	-14778
▁Sanhedrin	-14779
▁commander	-14780
▁complaint	-14781
▁confusion	-14782
▁forbidden	-14783
▁locations	-14784
▁Thereafter	-14785
▁collection	-14786
▁standpoint	-14787
▁lawlessness	-14788
▁thanksgiving	-14789
ÍÀ	-14790
inu	-14791
lad	-14792
imọ̀	-14793
rúsì	-14794
▁Ish	-14795
▁LÁT	-14796
▁Òṣì	-14797
▁àtẹ	-14798
Bless	-14799
bóámù	-14800
claim	-14801
loyal	-14802
ádóje	-14803
▁Joan	-14804
▁Leah	-14805
▁Pupa	-14806
▁erin	-14807
▁film	-14808
▁wept	-14809
ifying	-14810
seless	-14811
▁1995,	-14812
▁Guine	-14813
▁ISSUE	-14814
▁tenth	-14815
▁uncom	-14816
▁wheel	-14817
witness	-14818
▁Archae	-14819
▁Persia	-14820
▁Search	-14821
▁Tẹ́lẹ̀	-14822
▁denied	-14823
▁harass	-14824
▁làálàá	-14825
▁movies	-14826
▁overly	-14827
▁phrase	-14828
▁seated	-14829
▁voices	-14830
ableness	-14831
ications	-14832
▁100,000	-14833
▁Evening	-14834
▁Pacific	-14835
▁pursued	-14836
▁thereby	-14837
▁tẹ́gbẹ́	-14838
▁electric	-14839
▁immortal	-14840
▁ìhìnrere	-14841
▁gatherings	-14842
▁ultimately	-14843
▁Ọ̀pọ̀lọpọ̀	-14844
▁inspiration	-14845
▁instruments	-14846
▁mẹ́tàlélógún	-14847
▁occasionally	-14848
!"	-14849
KÀ	-14850
GBO	-14851
ILL	-14852
zan	-14853
Òun	-14854
ìde	-14855
▁62	-14856
▁Ep	-14857
▁WÀ	-14858
▁ṢÉ	-14859
lers	-14860
▁Lef	-14861
▁Pen	-14862
▁Rìn	-14863
▁ype	-14864
ashed	-14865
fting	-14866
jàgan	-14867
kẹ́rù	-14868
ouses	-14869
power	-14870
rántí	-14871
▁Méjì	-14872
▁sọdá	-14873
▁ìsun	-14874
rolled	-14875
▁Appro	-14876
▁dẹwọ́	-14877
▁papọ̀	-14878
▁ẹ̀rín	-14879
banbarì	-14880
respect	-14881
▁Common	-14882
▁Guinea	-14883
▁Savior	-14884
▁cherub	-14885
▁flight	-14886
▁profit	-14887
▁yangàn	-14888
▁Antioch	-14889
▁Gabriel	-14890
▁advised	-14891
▁gbámúṣé	-14892
▁gbọ́ràn	-14893
▁olókìkí	-14894
▁ìrékọjá	-14895
▁ṣẹ̀wọ̀n	-14896
▁ARTICLES	-14897
▁Gbìyànjú	-14898
▁attached	-14899
▁cleaning	-14900
▁sísọ̀rọ̀	-14901
▁connected	-14902
▁fúnrúgbìn	-14903
▁seemingly	-14904
▁electronic	-14905
▁reassuring	-14906
▁inclination	-14907
BI	-14908
NÀ	-14909
▁0	-14910
una	-14911
íní	-14912
▁TA	-14913
aves	-14914
ette	-14915
kadì	-14916
▁Age	-14917
▁Bas	-14918
▁Bay	-14919
▁Civ	-14920
▁Pap	-14921
▁Uzz	-14922
▁jin	-14923
aning	-14924
lẹ́ẹ̀	-14925
wádún	-14926
▁Bern	-14927
▁Hosp	-14928
▁Meal	-14929
▁Níní	-14930
▁Sign	-14931
▁tẹra	-14932
▁ìtan	-14933
▁ṣeun	-14934
cially	-14935
kọ̀tọ̀	-14936
ranean	-14937
▁Caleb	-14938
▁aging	-14939
▁okòwò	-14940
▁ruins	-14941
▁rẹ́gí	-14942
▁thick	-14943
▁tower	-14944
▁àtiṣe	-14945
mọ̀lára	-14946
▁Strong	-14947
▁babies	-14948
▁kẹ̀yìn	-14949
▁lóòjọ́	-14950
▁splend	-14951
▁wooden	-14952
▁wárìrì	-14953
▁ìsopọ̀	-14954
▁òùngbẹ	-14955
▁ẹlẹ́wà	-14956
▁Science	-14957
▁defined	-14958
▁sadness	-14959
▁ìkankan	-14960
▁ìtẹríba	-14961
gídíjàgan	-14962
▁awaiting	-14963
▁ceremony	-14964
▁requests	-14965
▁Obviously	-14966
▁Religious	-14967
▁exemplary	-14968
▁secretary	-14969
▁slaughter	-14970
▁refreshment	-14971
▁unbelievers	-14972
▁ọmọdébìnrin	-14973
▁deliberately	-14974
▁heartwarming	-14975
▁unscriptural	-14976
▁discouragement	-14977
.)	-14978
RIT	-14979
síá	-14980
Ẹnì	-14981
▁61	-14982
▁RẸ	-14983
reel	-14984
rina	-14985
rine	-14986
uese	-14987
word	-14988
yapa	-14989
yàrá	-14990
áfíà	-14991
▁43:	-14992
▁46.	-14993
▁Dùn	-14994
▁Ped	-14995
▁bàǹ	-14996
▁rub	-14997
▁Èwo	-14998
▁hill	-14999
▁tipá	-15000
oliath	-15001
▁Abner	-15002
▁Debor	-15003
▁Gomor	-15004
▁adìyẹ	-15005
▁drove	-15006
▁evalu	-15007
▁frank	-15008
▁láìyẹ	-15009
▁opens	-15010
▁slain	-15011
▁Àjálù	-15012
▁ìdáná	-15013
▁ẹ̀tẹ̀	-15014
ameless	-15015
gbáágbá	-15016
▁Behold	-15017
▁Regard	-15018
▁Review	-15019
▁altars	-15020
▁assure	-15021
▁tọ̀tún	-15022
▁ọ̀gbọ̀	-15023
▁Gbàdúrà	-15024
▁Jezreel	-15025
▁chariot	-15026
▁embrace	-15027
▁enhance	-15028
▁Àbájáde	-15029
▁announce	-15030
▁hopeless	-15031
▁jẹ́jẹ̀ẹ́	-15032
▁portions	-15033
▁provoked	-15034
▁exclaimed	-15035
▁ìṣẹ̀ǹbáyé	-15036
▁Portuguese	-15037
▁loneliness	-15038
▁observance	-15039
▁sacrificed	-15040
▁vulnerable	-15041
▁ìfẹsẹ̀wọnsẹ̀	-15042
LÙ	-15043
OME	-15044
udu	-15045
▁Fà	-15046
▁Jọ	-15047
irty	-15048
ròyé	-15049
▁Ecu	-15050
▁Iná	-15051
▁KAN	-15052
▁Sis	-15053
▁fro	-15054
▁rev	-15055
▁smo	-15056
▁unp	-15057
▁Àfi	-15058
▁ìgò	-15059
▁ìtó	-15060
▁Ṣẹ́	-15061
kínní	-15062
stain	-15063
▁Hong	-15064
▁Prac	-15065
▁cred	-15066
▁peak	-15067
▁unle	-15068
▁ọṣẹ́	-15069
gbòòrò	-15070
risons	-15071
ṣọ̀kan	-15072
▁1993,	-15073
▁Loida	-15074
▁aloud	-15075
▁ìforí	-15076
▁ṣíṣàì	-15077
tenance	-15078
▁Athens	-15079
▁Become	-15080
▁Resear	-15081
▁chores	-15082
▁devote	-15083
▁gospel	-15084
▁rebels	-15085
▁rẹ̀yìn	-15086
▁valued	-15087
▁Àjíǹde	-15088
Everyone	-15089
aralóore	-15090
▁Ecuador	-15091
▁Goliath	-15092
▁látọdún	-15093
▁pàǹtírí	-15094
▁Hesekiah	-15095
▁apostate	-15096
▁emphasis	-15097
▁judicial	-15098
▁takọtabo	-15099
ọgbọ́nhùwà	-15100
▁documents	-15101
▁intellect	-15102
▁oníṣekúṣe	-15103
▁virtually	-15104
▁controvers	-15105
▁devastated	-15106
▁performing	-15107
▁Babylonians	-15108
▁wholeheartedly	-15109
EP	-15110
mẹ	-15111
you	-15112
èmi	-15113
▁AT	-15114
▁Lò	-15115
last	-15116
▁38,	-15117
▁LỌ́	-15118
▁WOR	-15119
▁akó	-15120
erior	-15121
▁Bath	-15122
▁NASA	-15123
▁Nílò	-15124
▁pair	-15125
▁plot	-15126
▁témi	-15127
▁unin	-15128
bánilò	-15129
everal	-15130
orious	-15131
unting	-15132
▁Serve	-15133
▁fails	-15134
▁tasks	-15135
▁unpre	-15136
▁Listen	-15137
▁beside	-15138
▁expert	-15139
▁irúfẹ́	-15140
▁níyàwó	-15141
▁olórin	-15142
▁prince	-15143
▁troops	-15144
▁tẹ̀yìn	-15145
▁òyìnbó	-15146
ṣípààrọ̀	-15147
▁Mediter	-15148
▁crucial	-15149
▁offices	-15150
▁selling	-15151
▁àdánidá	-15152
▁Scotland	-15153
▁Thursday	-15154
▁bẹ́tọ̀ọ́	-15155
▁creating	-15156
▁dedicate	-15157
▁increases	-15158
▁lákọọ́lẹ̀	-15159
▁perceived	-15160
▁ìṣẹ̀dálẹ̀	-15161
▁protective	-15162
dínlọ́gọ́rùn	-15163
▁fínnúfíndọ̀	-15164
▁Mediterranean	-15165
cle	-15166
ike	-15167
lay	-15168
tia	-15169
▁FA	-15170
goro	-15171
péle	-15172
wood	-15173
▁Dal	-15174
▁Rab	-15175
▁ìfà	-15176
▁ìpá	-15177
astro	-15178
vings	-15179
ánásè	-15180
▁Lílo	-15181
▁QUES	-15182
▁Seed	-15183
▁batt	-15184
▁edge	-15185
▁kiss	-15186
▁mójú	-15187
▁wáyè	-15188
▁àsíá	-15189
▁ṣíṣí	-15190
▁Ọrọ̀	-15191
onents	-15192
rélànà	-15193
▁Gbàrà	-15194
▁Mímọ̀	-15195
▁Púpọ̀	-15196
▁Third	-15197
▁fífẹ́	-15198
▁fòòró	-15199
▁lóhun	-15200
▁noble	-15201
▁senti	-15202
▁ṣìkẹ́	-15203
▁ṣísẹ̀	-15204
▁Ọ̀kẹ́	-15205
▁abẹ́lé	-15206
▁coping	-15207
▁fẹ̀yìn	-15208
▁gogoro	-15209
▁jàǹkàn	-15210
▁lábúlé	-15211
▁mainly	-15212
▁richly	-15213
▁ẹ̀gbin	-15214
▁Vulgate	-15215
▁chooses	-15216
▁dressed	-15217
▁gbọgbẹ́	-15218
▁proving	-15219
▁species	-15220
▁èròkerò	-15221
▁ìwúkàrà	-15222
▁ṣaláìní	-15223
▁ẹ̀wádún	-15224
▁Alákòóso	-15225
▁despised	-15226
▁jaburata	-15227
▁province	-15228
▁regarded	-15229
▁Ábígẹ́lì	-15230
rélànàkọjá	-15231
▁petitions	-15232
▁transfusions	-15233
▁inexperienced	-15234
30	-15235
SO	-15236
SW	-15237
oa	-15238
ibi	-15239
rip	-15240
Give	-15241
akun	-15242
gans	-15243
tipá	-15244
▁GẸ́	-15245
▁fọn	-15246
▁Árá	-15247
pùrọ́	-15248
pọ̀jù	-15249
▁2019	-15250
▁Jess	-15251
▁finú	-15252
▁ride	-15253
▁síhà	-15254
▁ègún	-15255
ention	-15256
▁1939,	-15257
▁1997,	-15258
▁Maker	-15259
▁Smith	-15260
▁apẹja	-15261
▁ẹ̀wẹ́	-15262
▁Indian	-15263
▁Mánásè	-15264
▁copper	-15265
▁courty	-15266
▁covers	-15267
▁eléyìí	-15268
▁nights	-15269
▁Àìmọye	-15270
ṣiṣẹ́pọ̀	-15271
▁Changes	-15272
▁Lebanon	-15273
▁aláàbọ̀	-15274
▁bondage	-15275
▁cleanse	-15276
▁seventy	-15277
▁utterly	-15278
▁Ìmọ́lẹ̀	-15279
lánẹ́ẹ̀tì	-15280
▁Governor	-15281
▁holiness	-15282
▁measured	-15283
▁pàjáwìrì	-15284
▁survival	-15285
▁ìtìlẹyìn	-15286
▁atonement	-15287
▁physician	-15288
▁Regardless	-15289
▁disrespect	-15290
▁délẹ̀délẹ̀	-15291
▁contributes	-15292
▁remembrance	-15293
▁unnecessary	-15294
TÀ	-15295
chi	-15296
cia	-15297
his	-15298
▁Fò	-15299
▁lú	-15300
baba	-15301
chan	-15302
give	-15303
hail	-15304
▁abi	-15305
▁Ìbí	-15306
dánwò	-15307
orate	-15308
rọ́sì	-15309
ọ̀nyí	-15310
▁Head	-15311
▁Into	-15312
▁Whom	-15313
▁lèrò	-15314
▁sírú	-15315
▁wasn	-15316
▁yíyí	-15317
▁Found	-15318
▁Guard	-15319
▁Ojúṣe	-15320
▁TEACH	-15321
▁bàǹtà	-15322
▁dried	-15323
▁dẹ́bi	-15324
▁mọ̀wé	-15325
▁parun	-15326
▁sàréè	-15327
▁tries	-15328
▁ìbúra	-15329
▁Ọ̀PỌ̀	-15330
parable	-15331
respass	-15332
▁Cyprus	-15333
▁Peters	-15334
▁kérúbù	-15335
▁simpli	-15336
▁ìrawọ́	-15337
▁ìtànná	-15338
▁ṣàtakò	-15339
fọkànsìn	-15340
ojúsọ́nà	-15341
sowọ́pọ̀	-15342
▁bọ́ọ̀sì	-15343
▁funeral	-15344
▁somehow	-15345
▁visions	-15346
▁weighed	-15347
▁wonders	-15348
▁àádọ́jọ	-15349
▁sessions	-15350
▁tipátipá	-15351
▁assembled	-15352
▁gbẹ́kẹ̀lé	-15353
▁identifies	-15354
▁indication	-15355
▁Christensen	-15356
▁grandmother	-15357
▁strengthens	-15358
▁distribution	-15359
▁honesthearted	-15360
ST	-15361
àì	-15362
òò	-15363
Con	-15364
IFA	-15365
RIS	-15366
iga	-15367
met	-15368
▁Wú	-15369
anim	-15370
have	-15371
ivia	-15372
outs	-15373
▁Dar	-15374
▁Míì	-15375
▁Opp	-15376
▁Sub	-15377
▁imú	-15378
▁ọdẹ	-15379
appro	-15380
bàárà	-15381
▁Very	-15382
▁jọjú	-15383
▁kọlù	-15384
▁sóun	-15385
▁thie	-15386
▁ṣúgà	-15387
▁Ọgbà	-15388
▁Asaph	-15389
[...]
